{
  "version": "1.0",
  "truncation": null,
  "padding": null,
  "added_tokens": [
    {
      "id": 0,
      "content": "<pad>",
      "single_word": false,
      "lstrip": false,
      "rstrip": false,
      "normalized": false,
      "special": true
    },
    {
      "id": 1,
      "content": "<unk>",
      "single_word": false,
      "lstrip": false,
      "rstrip": false,
      "normalized": false,
      "special": true
    },
    {
      "id": 2,
      "content": "<s>",
      "single_word": false,
      "lstrip": false,
      "rstrip": false,
      "normalized": false,
      "special": true
    },
    {
      "id": 3,
      "content": "</s>",
      "single_word": false,
      "lstrip": false,
      "rstrip": false,
      "normalized": false,
      "special": true
    },
    {
      "id": 4,
      "content": "<|im_start|>",
      "single_word": false,
      "lstrip": false,
      "rstrip": false,
      "normalized": false,
      "special": true
    },
    {
      "id": 5,
      "content": "<|im_end|>",
      "single_word": false,
      "lstrip": false,
      "rstrip": false,
      "normalized": false,
      "special": true
    },
    {
      "id": 6,
      "content": "<|system|>",
      "single_word": false,
      "lstrip": false,
      "rstrip": false,
      "normalized": false,
      "special": true
    },
    {
      "id": 7,
      "content": "<|user|>",
      "single_word": false,
      "lstrip": false,
      "rstrip": false,
      "normalized": false,
      "special": true
    },
    {
      "id": 8,
      "content": "<|assistant|>",
      "single_word": false,
      "lstrip": false,
      "rstrip": false,
      "normalized": false,
      "special": true
    },
    {
      "id": 9,
      "content": "<|tool|>",
      "single_word": false,
      "lstrip": false,
      "rstrip": false,
      "normalized": false,
      "special": true
    },
    {
      "id": 10,
      "content": "<|tool_result|>",
      "single_word": false,
      "lstrip": false,
      "rstrip": false,
      "normalized": false,
      "special": true
    },
    {
      "id": 11,
      "content": "<|task_sentiment|>",
      "single_word": false,
      "lstrip": false,
      "rstrip": false,
      "normalized": false,
      "special": true
    },
    {
      "id": 12,
      "content": "<|task_ner|>",
      "single_word": false,
      "lstrip": false,
      "rstrip": false,
      "normalized": false,
      "special": true
    },
    {
      "id": 13,
      "content": "<|task_qa|>",
      "single_word": false,
      "lstrip": false,
      "rstrip": false,
      "normalized": false,
      "special": true
    },
    {
      "id": 14,
      "content": "<|task_summarize|>",
      "single_word": false,
      "lstrip": false,
      "rstrip": false,
      "normalized": false,
      "special": true
    },
    {
      "id": 15,
      "content": "<|task_translate_bn_en|>",
      "single_word": false,
      "lstrip": false,
      "rstrip": false,
      "normalized": false,
      "special": true
    },
    {
      "id": 16,
      "content": "<|task_translate_en_bn|>",
      "single_word": false,
      "lstrip": false,
      "rstrip": false,
      "normalized": false,
      "special": true
    },
    {
      "id": 17,
      "content": "<|task_classify|>",
      "single_word": false,
      "lstrip": false,
      "rstrip": false,
      "normalized": false,
      "special": true
    },
    {
      "id": 18,
      "content": "<|task_generate|>",
      "single_word": false,
      "lstrip": false,
      "rstrip": false,
      "normalized": false,
      "special": true
    },
    {
      "id": 19,
      "content": "<|task_toxicity|>",
      "single_word": false,
      "lstrip": false,
      "rstrip": false,
      "normalized": false,
      "special": true
    },
    {
      "id": 20,
      "content": "<|task_nli|>",
      "single_word": false,
      "lstrip": false,
      "rstrip": false,
      "normalized": false,
      "special": true
    },
    {
      "id": 21,
      "content": "<|task_pos|>",
      "single_word": false,
      "lstrip": false,
      "rstrip": false,
      "normalized": false,
      "special": true
    },
    {
      "id": 22,
      "content": "<|task_paraphrase|>",
      "single_word": false,
      "lstrip": false,
      "rstrip": false,
      "normalized": false,
      "special": true
    },
    {
      "id": 23,
      "content": "<|lang_bn|>",
      "single_word": false,
      "lstrip": false,
      "rstrip": false,
      "normalized": false,
      "special": true
    },
    {
      "id": 24,
      "content": "<|lang_en|>",
      "single_word": false,
      "lstrip": false,
      "rstrip": false,
      "normalized": false,
      "special": true
    },
    {
      "id": 25,
      "content": "<|lang_wbn|>",
      "single_word": false,
      "lstrip": false,
      "rstrip": false,
      "normalized": false,
      "special": true
    },
    {
      "id": 26,
      "content": "<|lang_bnls|>",
      "single_word": false,
      "lstrip": false,
      "rstrip": false,
      "normalized": false,
      "special": true
    },
    {
      "id": 27,
      "content": "<|lang_mix|>",
      "single_word": false,
      "lstrip": false,
      "rstrip": false,
      "normalized": false,
      "special": true
    },
    {
      "id": 28,
      "content": "<|lang_code|>",
      "single_word": false,
      "lstrip": false,
      "rstrip": false,
      "normalized": false,
      "special": true
    },
    {
      "id": 29,
      "content": "<|positive|>",
      "single_word": false,
      "lstrip": false,
      "rstrip": false,
      "normalized": false,
      "special": true
    },
    {
      "id": 30,
      "content": "<|negative|>",
      "single_word": false,
      "lstrip": false,
      "rstrip": false,
      "normalized": false,
      "special": true
    },
    {
      "id": 31,
      "content": "<|neutral|>",
      "single_word": false,
      "lstrip": false,
      "rstrip": false,
      "normalized": false,
      "special": true
    },
    {
      "id": 32,
      "content": "<|mixed|>",
      "single_word": false,
      "lstrip": false,
      "rstrip": false,
      "normalized": false,
      "special": true
    },
    {
      "id": 33,
      "content": "<|offensive|>",
      "single_word": false,
      "lstrip": false,
      "rstrip": false,
      "normalized": false,
      "special": true
    },
    {
      "id": 34,
      "content": "<|think|>",
      "single_word": false,
      "lstrip": false,
      "rstrip": false,
      "normalized": false,
      "special": true
    },
    {
      "id": 35,
      "content": "<|/think|>",
      "single_word": false,
      "lstrip": false,
      "rstrip": false,
      "normalized": false,
      "special": true
    },
    {
      "id": 36,
      "content": "<|answer|>",
      "single_word": false,
      "lstrip": false,
      "rstrip": false,
      "normalized": false,
      "special": true
    },
    {
      "id": 37,
      "content": "<|sep|>",
      "single_word": false,
      "lstrip": false,
      "rstrip": false,
      "normalized": false,
      "special": true
    },
    {
      "id": 38,
      "content": "<|context|>",
      "single_word": false,
      "lstrip": false,
      "rstrip": false,
      "normalized": false,
      "special": true
    },
    {
      "id": 39,
      "content": "<|/context|>",
      "single_word": false,
      "lstrip": false,
      "rstrip": false,
      "normalized": false,
      "special": true
    },
    {
      "id": 40,
      "content": "<|question|>",
      "single_word": false,
      "lstrip": false,
      "rstrip": false,
      "normalized": false,
      "special": true
    },
    {
      "id": 41,
      "content": "<|passage|>",
      "single_word": false,
      "lstrip": false,
      "rstrip": false,
      "normalized": false,
      "special": true
    },
    {
      "id": 42,
      "content": "<|headline|>",
      "single_word": false,
      "lstrip": false,
      "rstrip": false,
      "normalized": false,
      "special": true
    },
    {
      "id": 43,
      "content": "<|title|>",
      "single_word": false,
      "lstrip": false,
      "rstrip": false,
      "normalized": false,
      "special": true
    },
    {
      "id": 44,
      "content": "<|speaker_a|>",
      "single_word": false,
      "lstrip": false,
      "rstrip": false,
      "normalized": false,
      "special": true
    },
    {
      "id": 45,
      "content": "<|speaker_b|>",
      "single_word": false,
      "lstrip": false,
      "rstrip": false,
      "normalized": false,
      "special": true
    },
    {
      "id": 46,
      "content": "<|reserved_0|>",
      "single_word": false,
      "lstrip": false,
      "rstrip": false,
      "normalized": false,
      "special": true
    },
    {
      "id": 47,
      "content": "<|reserved_1|>",
      "single_word": false,
      "lstrip": false,
      "rstrip": false,
      "normalized": false,
      "special": true
    },
    {
      "id": 48,
      "content": "<|reserved_2|>",
      "single_word": false,
      "lstrip": false,
      "rstrip": false,
      "normalized": false,
      "special": true
    },
    {
      "id": 49,
      "content": "<|reserved_3|>",
      "single_word": false,
      "lstrip": false,
      "rstrip": false,
      "normalized": false,
      "special": true
    },
    {
      "id": 50,
      "content": "<|reserved_4|>",
      "single_word": false,
      "lstrip": false,
      "rstrip": false,
      "normalized": false,
      "special": true
    },
    {
      "id": 51,
      "content": "<|reserved_5|>",
      "single_word": false,
      "lstrip": false,
      "rstrip": false,
      "normalized": false,
      "special": true
    },
    {
      "id": 52,
      "content": "<|reserved_6|>",
      "single_word": false,
      "lstrip": false,
      "rstrip": false,
      "normalized": false,
      "special": true
    },
    {
      "id": 53,
      "content": "<|reserved_7|>",
      "single_word": false,
      "lstrip": false,
      "rstrip": false,
      "normalized": false,
      "special": true
    },
    {
      "id": 54,
      "content": "<|reserved_8|>",
      "single_word": false,
      "lstrip": false,
      "rstrip": false,
      "normalized": false,
      "special": true
    },
    {
      "id": 55,
      "content": "<|reserved_9|>",
      "single_word": false,
      "lstrip": false,
      "rstrip": false,
      "normalized": false,
      "special": true
    },
    {
      "id": 56,
      "content": "<|reserved_10|>",
      "single_word": false,
      "lstrip": false,
      "rstrip": false,
      "normalized": false,
      "special": true
    },
    {
      "id": 57,
      "content": "<|reserved_11|>",
      "single_word": false,
      "lstrip": false,
      "rstrip": false,
      "normalized": false,
      "special": true
    },
    {
      "id": 58,
      "content": "<|reserved_12|>",
      "single_word": false,
      "lstrip": false,
      "rstrip": false,
      "normalized": false,
      "special": true
    },
    {
      "id": 59,
      "content": "<|reserved_13|>",
      "single_word": false,
      "lstrip": false,
      "rstrip": false,
      "normalized": false,
      "special": true
    },
    {
      "id": 60,
      "content": "<|reserved_14|>",
      "single_word": false,
      "lstrip": false,
      "rstrip": false,
      "normalized": false,
      "special": true
    },
    {
      "id": 61,
      "content": "<|reserved_15|>",
      "single_word": false,
      "lstrip": false,
      "rstrip": false,
      "normalized": false,
      "special": true
    },
    {
      "id": 62,
      "content": "<|reserved_16|>",
      "single_word": false,
      "lstrip": false,
      "rstrip": false,
      "normalized": false,
      "special": true
    },
    {
      "id": 63,
      "content": "<|reserved_17|>",
      "single_word": false,
      "lstrip": false,
      "rstrip": false,
      "normalized": false,
      "special": true
    },
    {
      "id": 64,
      "content": "<|reserved_18|>",
      "single_word": false,
      "lstrip": false,
      "rstrip": false,
      "normalized": false,
      "special": true
    },
    {
      "id": 65,
      "content": "<|reserved_19|>",
      "single_word": false,
      "lstrip": false,
      "rstrip": false,
      "normalized": false,
      "special": true
    },
    {
      "id": 66,
      "content": "<|reserved_20|>",
      "single_word": false,
      "lstrip": false,
      "rstrip": false,
      "normalized": false,
      "special": true
    },
    {
      "id": 67,
      "content": "<|reserved_21|>",
      "single_word": false,
      "lstrip": false,
      "rstrip": false,
      "normalized": false,
      "special": true
    },
    {
      "id": 68,
      "content": "<|reserved_22|>",
      "single_word": false,
      "lstrip": false,
      "rstrip": false,
      "normalized": false,
      "special": true
    },
    {
      "id": 69,
      "content": "<|reserved_23|>",
      "single_word": false,
      "lstrip": false,
      "rstrip": false,
      "normalized": false,
      "special": true
    },
    {
      "id": 70,
      "content": "<|reserved_24|>",
      "single_word": false,
      "lstrip": false,
      "rstrip": false,
      "normalized": false,
      "special": true
    },
    {
      "id": 71,
      "content": "<|reserved_25|>",
      "single_word": false,
      "lstrip": false,
      "rstrip": false,
      "normalized": false,
      "special": true
    },
    {
      "id": 72,
      "content": "<|reserved_26|>",
      "single_word": false,
      "lstrip": false,
      "rstrip": false,
      "normalized": false,
      "special": true
    },
    {
      "id": 73,
      "content": "<|reserved_27|>",
      "single_word": false,
      "lstrip": false,
      "rstrip": false,
      "normalized": false,
      "special": true
    },
    {
      "id": 74,
      "content": "<|reserved_28|>",
      "single_word": false,
      "lstrip": false,
      "rstrip": false,
      "normalized": false,
      "special": true
    },
    {
      "id": 75,
      "content": "<|reserved_29|>",
      "single_word": false,
      "lstrip": false,
      "rstrip": false,
      "normalized": false,
      "special": true
    },
    {
      "id": 76,
      "content": "<|reserved_30|>",
      "single_word": false,
      "lstrip": false,
      "rstrip": false,
      "normalized": false,
      "special": true
    },
    {
      "id": 77,
      "content": "<|reserved_31|>",
      "single_word": false,
      "lstrip": false,
      "rstrip": false,
      "normalized": false,
      "special": true
    },
    {
      "id": 78,
      "content": "<|reserved_32|>",
      "single_word": false,
      "lstrip": false,
      "rstrip": false,
      "normalized": false,
      "special": true
    },
    {
      "id": 79,
      "content": "<|reserved_33|>",
      "single_word": false,
      "lstrip": false,
      "rstrip": false,
      "normalized": false,
      "special": true
    },
    {
      "id": 80,
      "content": "<|reserved_34|>",
      "single_word": false,
      "lstrip": false,
      "rstrip": false,
      "normalized": false,
      "special": true
    },
    {
      "id": 81,
      "content": "<|reserved_35|>",
      "single_word": false,
      "lstrip": false,
      "rstrip": false,
      "normalized": false,
      "special": true
    },
    {
      "id": 82,
      "content": "<|reserved_36|>",
      "single_word": false,
      "lstrip": false,
      "rstrip": false,
      "normalized": false,
      "special": true
    },
    {
      "id": 83,
      "content": "<|reserved_37|>",
      "single_word": false,
      "lstrip": false,
      "rstrip": false,
      "normalized": false,
      "special": true
    },
    {
      "id": 84,
      "content": "<|reserved_38|>",
      "single_word": false,
      "lstrip": false,
      "rstrip": false,
      "normalized": false,
      "special": true
    },
    {
      "id": 85,
      "content": "<|reserved_39|>",
      "single_word": false,
      "lstrip": false,
      "rstrip": false,
      "normalized": false,
      "special": true
    },
    {
      "id": 86,
      "content": "<|reserved_40|>",
      "single_word": false,
      "lstrip": false,
      "rstrip": false,
      "normalized": false,
      "special": true
    },
    {
      "id": 87,
      "content": "<|reserved_41|>",
      "single_word": false,
      "lstrip": false,
      "rstrip": false,
      "normalized": false,
      "special": true
    },
    {
      "id": 88,
      "content": "<|reserved_42|>",
      "single_word": false,
      "lstrip": false,
      "rstrip": false,
      "normalized": false,
      "special": true
    },
    {
      "id": 89,
      "content": "<|reserved_43|>",
      "single_word": false,
      "lstrip": false,
      "rstrip": false,
      "normalized": false,
      "special": true
    },
    {
      "id": 90,
      "content": "<|reserved_44|>",
      "single_word": false,
      "lstrip": false,
      "rstrip": false,
      "normalized": false,
      "special": true
    },
    {
      "id": 91,
      "content": "<|reserved_45|>",
      "single_word": false,
      "lstrip": false,
      "rstrip": false,
      "normalized": false,
      "special": true
    },
    {
      "id": 92,
      "content": "<|reserved_46|>",
      "single_word": false,
      "lstrip": false,
      "rstrip": false,
      "normalized": false,
      "special": true
    },
    {
      "id": 93,
      "content": "<|reserved_47|>",
      "single_word": false,
      "lstrip": false,
      "rstrip": false,
      "normalized": false,
      "special": true
    },
    {
      "id": 94,
      "content": "<|reserved_48|>",
      "single_word": false,
      "lstrip": false,
      "rstrip": false,
      "normalized": false,
      "special": true
    },
    {
      "id": 95,
      "content": "<|reserved_49|>",
      "single_word": false,
      "lstrip": false,
      "rstrip": false,
      "normalized": false,
      "special": true
    },
    {
      "id": 96,
      "content": "<|reserved_50|>",
      "single_word": false,
      "lstrip": false,
      "rstrip": false,
      "normalized": false,
      "special": true
    },
    {
      "id": 97,
      "content": "<|reserved_51|>",
      "single_word": false,
      "lstrip": false,
      "rstrip": false,
      "normalized": false,
      "special": true
    },
    {
      "id": 98,
      "content": "<|reserved_52|>",
      "single_word": false,
      "lstrip": false,
      "rstrip": false,
      "normalized": false,
      "special": true
    },
    {
      "id": 99,
      "content": "<|reserved_53|>",
      "single_word": false,
      "lstrip": false,
      "rstrip": false,
      "normalized": false,
      "special": true
    },
    {
      "id": 100,
      "content": "<|reserved_54|>",
      "single_word": false,
      "lstrip": false,
      "rstrip": false,
      "normalized": false,
      "special": true
    },
    {
      "id": 101,
      "content": "<|reserved_55|>",
      "single_word": false,
      "lstrip": false,
      "rstrip": false,
      "normalized": false,
      "special": true
    },
    {
      "id": 102,
      "content": "<|reserved_56|>",
      "single_word": false,
      "lstrip": false,
      "rstrip": false,
      "normalized": false,
      "special": true
    },
    {
      "id": 103,
      "content": "<|reserved_57|>",
      "single_word": false,
      "lstrip": false,
      "rstrip": false,
      "normalized": false,
      "special": true
    },
    {
      "id": 104,
      "content": "<|reserved_58|>",
      "single_word": false,
      "lstrip": false,
      "rstrip": false,
      "normalized": false,
      "special": true
    },
    {
      "id": 105,
      "content": "<|reserved_59|>",
      "single_word": false,
      "lstrip": false,
      "rstrip": false,
      "normalized": false,
      "special": true
    },
    {
      "id": 106,
      "content": "<|reserved_60|>",
      "single_word": false,
      "lstrip": false,
      "rstrip": false,
      "normalized": false,
      "special": true
    },
    {
      "id": 107,
      "content": "<|reserved_61|>",
      "single_word": false,
      "lstrip": false,
      "rstrip": false,
      "normalized": false,
      "special": true
    },
    {
      "id": 108,
      "content": "<|reserved_62|>",
      "single_word": false,
      "lstrip": false,
      "rstrip": false,
      "normalized": false,
      "special": true
    },
    {
      "id": 109,
      "content": "<|reserved_63|>",
      "single_word": false,
      "lstrip": false,
      "rstrip": false,
      "normalized": false,
      "special": true
    },
    {
      "id": 110,
      "content": "<|reserved_64|>",
      "single_word": false,
      "lstrip": false,
      "rstrip": false,
      "normalized": false,
      "special": true
    },
    {
      "id": 111,
      "content": "<|reserved_65|>",
      "single_word": false,
      "lstrip": false,
      "rstrip": false,
      "normalized": false,
      "special": true
    },
    {
      "id": 112,
      "content": "<|reserved_66|>",
      "single_word": false,
      "lstrip": false,
      "rstrip": false,
      "normalized": false,
      "special": true
    },
    {
      "id": 113,
      "content": "<|reserved_67|>",
      "single_word": false,
      "lstrip": false,
      "rstrip": false,
      "normalized": false,
      "special": true
    },
    {
      "id": 114,
      "content": "<|reserved_68|>",
      "single_word": false,
      "lstrip": false,
      "rstrip": false,
      "normalized": false,
      "special": true
    },
    {
      "id": 115,
      "content": "<|reserved_69|>",
      "single_word": false,
      "lstrip": false,
      "rstrip": false,
      "normalized": false,
      "special": true
    },
    {
      "id": 116,
      "content": "<|reserved_70|>",
      "single_word": false,
      "lstrip": false,
      "rstrip": false,
      "normalized": false,
      "special": true
    },
    {
      "id": 117,
      "content": "<|reserved_71|>",
      "single_word": false,
      "lstrip": false,
      "rstrip": false,
      "normalized": false,
      "special": true
    },
    {
      "id": 118,
      "content": "<|reserved_72|>",
      "single_word": false,
      "lstrip": false,
      "rstrip": false,
      "normalized": false,
      "special": true
    },
    {
      "id": 119,
      "content": "<|reserved_73|>",
      "single_word": false,
      "lstrip": false,
      "rstrip": false,
      "normalized": false,
      "special": true
    },
    {
      "id": 120,
      "content": "<|reserved_74|>",
      "single_word": false,
      "lstrip": false,
      "rstrip": false,
      "normalized": false,
      "special": true
    },
    {
      "id": 121,
      "content": "<|reserved_75|>",
      "single_word": false,
      "lstrip": false,
      "rstrip": false,
      "normalized": false,
      "special": true
    },
    {
      "id": 122,
      "content": "<|reserved_76|>",
      "single_word": false,
      "lstrip": false,
      "rstrip": false,
      "normalized": false,
      "special": true
    },
    {
      "id": 123,
      "content": "<|reserved_77|>",
      "single_word": false,
      "lstrip": false,
      "rstrip": false,
      "normalized": false,
      "special": true
    },
    {
      "id": 124,
      "content": "<|reserved_78|>",
      "single_word": false,
      "lstrip": false,
      "rstrip": false,
      "normalized": false,
      "special": true
    },
    {
      "id": 125,
      "content": "<|reserved_79|>",
      "single_word": false,
      "lstrip": false,
      "rstrip": false,
      "normalized": false,
      "special": true
    },
    {
      "id": 126,
      "content": "<|reserved_80|>",
      "single_word": false,
      "lstrip": false,
      "rstrip": false,
      "normalized": false,
      "special": true
    },
    {
      "id": 127,
      "content": "<|reserved_81|>",
      "single_word": false,
      "lstrip": false,
      "rstrip": false,
      "normalized": false,
      "special": true
    },
    {
      "id": 128,
      "content": "<|reserved_82|>",
      "single_word": false,
      "lstrip": false,
      "rstrip": false,
      "normalized": false,
      "special": true
    },
    {
      "id": 129,
      "content": "<|reserved_83|>",
      "single_word": false,
      "lstrip": false,
      "rstrip": false,
      "normalized": false,
      "special": true
    },
    {
      "id": 130,
      "content": "<|reserved_84|>",
      "single_word": false,
      "lstrip": false,
      "rstrip": false,
      "normalized": false,
      "special": true
    },
    {
      "id": 131,
      "content": "<|reserved_85|>",
      "single_word": false,
      "lstrip": false,
      "rstrip": false,
      "normalized": false,
      "special": true
    },
    {
      "id": 132,
      "content": "<|reserved_86|>",
      "single_word": false,
      "lstrip": false,
      "rstrip": false,
      "normalized": false,
      "special": true
    },
    {
      "id": 133,
      "content": "<|reserved_87|>",
      "single_word": false,
      "lstrip": false,
      "rstrip": false,
      "normalized": false,
      "special": true
    },
    {
      "id": 134,
      "content": "<|reserved_88|>",
      "single_word": false,
      "lstrip": false,
      "rstrip": false,
      "normalized": false,
      "special": true
    },
    {
      "id": 135,
      "content": "<|reserved_89|>",
      "single_word": false,
      "lstrip": false,
      "rstrip": false,
      "normalized": false,
      "special": true
    },
    {
      "id": 136,
      "content": "<|reserved_90|>",
      "single_word": false,
      "lstrip": false,
      "rstrip": false,
      "normalized": false,
      "special": true
    },
    {
      "id": 137,
      "content": "<|reserved_91|>",
      "single_word": false,
      "lstrip": false,
      "rstrip": false,
      "normalized": false,
      "special": true
    },
    {
      "id": 138,
      "content": "<|reserved_92|>",
      "single_word": false,
      "lstrip": false,
      "rstrip": false,
      "normalized": false,
      "special": true
    },
    {
      "id": 139,
      "content": "<|reserved_93|>",
      "single_word": false,
      "lstrip": false,
      "rstrip": false,
      "normalized": false,
      "special": true
    },
    {
      "id": 140,
      "content": "<|reserved_94|>",
      "single_word": false,
      "lstrip": false,
      "rstrip": false,
      "normalized": false,
      "special": true
    },
    {
      "id": 141,
      "content": "<|reserved_95|>",
      "single_word": false,
      "lstrip": false,
      "rstrip": false,
      "normalized": false,
      "special": true
    },
    {
      "id": 142,
      "content": "<|reserved_96|>",
      "single_word": false,
      "lstrip": false,
      "rstrip": false,
      "normalized": false,
      "special": true
    },
    {
      "id": 143,
      "content": "<|reserved_97|>",
      "single_word": false,
      "lstrip": false,
      "rstrip": false,
      "normalized": false,
      "special": true
    },
    {
      "id": 144,
      "content": "<|reserved_98|>",
      "single_word": false,
      "lstrip": false,
      "rstrip": false,
      "normalized": false,
      "special": true
    },
    {
      "id": 145,
      "content": "<|reserved_99|>",
      "single_word": false,
      "lstrip": false,
      "rstrip": false,
      "normalized": false,
      "special": true
    }
  ],
  "normalizer": null,
  "pre_tokenizer": {
    "type": "Metaspace",
    "replacement": "▁",
    "prepend_scheme": "first",
    "split": false
  },
  "post_processor": {
    "type": "TemplateProcessing",
    "single": [
      {
        "Sequence": {
          "id": "A",
          "type_id": 0
        }
      }
    ],
    "pair": [
      {
        "Sequence": {
          "id": "A",
          "type_id": 0
        }
      },
      {
        "Sequence": {
          "id": "B",
          "type_id": 1
        }
      }
    ],
    "special_tokens": {}
  },
  "decoder": {
    "type": "Sequence",
    "decoders": [
      {
        "type": "ByteFallback"
      },
      {
        "type": "Metaspace",
        "replacement": "▁",
        "prepend_scheme": "first",
        "split": true
      }
    ]
  },
  "model": {
    "type": "Unigram",
    "unk_id": 1,
    "vocab": [
      [
        "<pad>",
        0.0
      ],
      [
        "<unk>",
        0.0
      ],
      [
        "<s>",
        0.0
      ],
      [
        "</s>",
        0.0
      ],
      [
        "<|im_start|>",
        0.0
      ],
      [
        "<|im_end|>",
        0.0
      ],
      [
        "<|system|>",
        0.0
      ],
      [
        "<|user|>",
        0.0
      ],
      [
        "<|assistant|>",
        0.0
      ],
      [
        "<|tool|>",
        0.0
      ],
      [
        "<|tool_result|>",
        0.0
      ],
      [
        "<|task_sentiment|>",
        0.0
      ],
      [
        "<|task_ner|>",
        0.0
      ],
      [
        "<|task_qa|>",
        0.0
      ],
      [
        "<|task_summarize|>",
        0.0
      ],
      [
        "<|task_translate_bn_en|>",
        0.0
      ],
      [
        "<|task_translate_en_bn|>",
        0.0
      ],
      [
        "<|task_classify|>",
        0.0
      ],
      [
        "<|task_generate|>",
        0.0
      ],
      [
        "<|task_toxicity|>",
        0.0
      ],
      [
        "<|task_nli|>",
        0.0
      ],
      [
        "<|task_pos|>",
        0.0
      ],
      [
        "<|task_paraphrase|>",
        0.0
      ],
      [
        "<|lang_bn|>",
        0.0
      ],
      [
        "<|lang_en|>",
        0.0
      ],
      [
        "<|lang_wbn|>",
        0.0
      ],
      [
        "<|lang_bnls|>",
        0.0
      ],
      [
        "<|lang_mix|>",
        0.0
      ],
      [
        "<|lang_code|>",
        0.0
      ],
      [
        "<|positive|>",
        0.0
      ],
      [
        "<|negative|>",
        0.0
      ],
      [
        "<|neutral|>",
        0.0
      ],
      [
        "<|mixed|>",
        0.0
      ],
      [
        "<|offensive|>",
        0.0
      ],
      [
        "<|think|>",
        0.0
      ],
      [
        "<|/think|>",
        0.0
      ],
      [
        "<|answer|>",
        0.0
      ],
      [
        "<|sep|>",
        0.0
      ],
      [
        "<|context|>",
        0.0
      ],
      [
        "<|/context|>",
        0.0
      ],
      [
        "<|question|>",
        0.0
      ],
      [
        "<|passage|>",
        0.0
      ],
      [
        "<|headline|>",
        0.0
      ],
      [
        "<|title|>",
        0.0
      ],
      [
        "<|speaker_a|>",
        0.0
      ],
      [
        "<|speaker_b|>",
        0.0
      ],
      [
        "<|reserved_0|>",
        0.0
      ],
      [
        "<|reserved_1|>",
        0.0
      ],
      [
        "<|reserved_2|>",
        0.0
      ],
      [
        "<|reserved_3|>",
        0.0
      ],
      [
        "<|reserved_4|>",
        0.0
      ],
      [
        "<|reserved_5|>",
        0.0
      ],
      [
        "<|reserved_6|>",
        0.0
      ],
      [
        "<|reserved_7|>",
        0.0
      ],
      [
        "<|reserved_8|>",
        0.0
      ],
      [
        "<|reserved_9|>",
        0.0
      ],
      [
        "<|reserved_10|>",
        0.0
      ],
      [
        "<|reserved_11|>",
        0.0
      ],
      [
        "<|reserved_12|>",
        0.0
      ],
      [
        "<|reserved_13|>",
        0.0
      ],
      [
        "<|reserved_14|>",
        0.0
      ],
      [
        "<|reserved_15|>",
        0.0
      ],
      [
        "<|reserved_16|>",
        0.0
      ],
      [
        "<|reserved_17|>",
        0.0
      ],
      [
        "<|reserved_18|>",
        0.0
      ],
      [
        "<|reserved_19|>",
        0.0
      ],
      [
        "<|reserved_20|>",
        0.0
      ],
      [
        "<|reserved_21|>",
        0.0
      ],
      [
        "<|reserved_22|>",
        0.0
      ],
      [
        "<|reserved_23|>",
        0.0
      ],
      [
        "<|reserved_24|>",
        0.0
      ],
      [
        "<|reserved_25|>",
        0.0
      ],
      [
        "<|reserved_26|>",
        0.0
      ],
      [
        "<|reserved_27|>",
        0.0
      ],
      [
        "<|reserved_28|>",
        0.0
      ],
      [
        "<|reserved_29|>",
        0.0
      ],
      [
        "<|reserved_30|>",
        0.0
      ],
      [
        "<|reserved_31|>",
        0.0
      ],
      [
        "<|reserved_32|>",
        0.0
      ],
      [
        "<|reserved_33|>",
        0.0
      ],
      [
        "<|reserved_34|>",
        0.0
      ],
      [
        "<|reserved_35|>",
        0.0
      ],
      [
        "<|reserved_36|>",
        0.0
      ],
      [
        "<|reserved_37|>",
        0.0
      ],
      [
        "<|reserved_38|>",
        0.0
      ],
      [
        "<|reserved_39|>",
        0.0
      ],
      [
        "<|reserved_40|>",
        0.0
      ],
      [
        "<|reserved_41|>",
        0.0
      ],
      [
        "<|reserved_42|>",
        0.0
      ],
      [
        "<|reserved_43|>",
        0.0
      ],
      [
        "<|reserved_44|>",
        0.0
      ],
      [
        "<|reserved_45|>",
        0.0
      ],
      [
        "<|reserved_46|>",
        0.0
      ],
      [
        "<|reserved_47|>",
        0.0
      ],
      [
        "<|reserved_48|>",
        0.0
      ],
      [
        "<|reserved_49|>",
        0.0
      ],
      [
        "<|reserved_50|>",
        0.0
      ],
      [
        "<|reserved_51|>",
        0.0
      ],
      [
        "<|reserved_52|>",
        0.0
      ],
      [
        "<|reserved_53|>",
        0.0
      ],
      [
        "<|reserved_54|>",
        0.0
      ],
      [
        "<|reserved_55|>",
        0.0
      ],
      [
        "<|reserved_56|>",
        0.0
      ],
      [
        "<|reserved_57|>",
        0.0
      ],
      [
        "<|reserved_58|>",
        0.0
      ],
      [
        "<|reserved_59|>",
        0.0
      ],
      [
        "<|reserved_60|>",
        0.0
      ],
      [
        "<|reserved_61|>",
        0.0
      ],
      [
        "<|reserved_62|>",
        0.0
      ],
      [
        "<|reserved_63|>",
        0.0
      ],
      [
        "<|reserved_64|>",
        0.0
      ],
      [
        "<|reserved_65|>",
        0.0
      ],
      [
        "<|reserved_66|>",
        0.0
      ],
      [
        "<|reserved_67|>",
        0.0
      ],
      [
        "<|reserved_68|>",
        0.0
      ],
      [
        "<|reserved_69|>",
        0.0
      ],
      [
        "<|reserved_70|>",
        0.0
      ],
      [
        "<|reserved_71|>",
        0.0
      ],
      [
        "<|reserved_72|>",
        0.0
      ],
      [
        "<|reserved_73|>",
        0.0
      ],
      [
        "<|reserved_74|>",
        0.0
      ],
      [
        "<|reserved_75|>",
        0.0
      ],
      [
        "<|reserved_76|>",
        0.0
      ],
      [
        "<|reserved_77|>",
        0.0
      ],
      [
        "<|reserved_78|>",
        0.0
      ],
      [
        "<|reserved_79|>",
        0.0
      ],
      [
        "<|reserved_80|>",
        0.0
      ],
      [
        "<|reserved_81|>",
        0.0
      ],
      [
        "<|reserved_82|>",
        0.0
      ],
      [
        "<|reserved_83|>",
        0.0
      ],
      [
        "<|reserved_84|>",
        0.0
      ],
      [
        "<|reserved_85|>",
        0.0
      ],
      [
        "<|reserved_86|>",
        0.0
      ],
      [
        "<|reserved_87|>",
        0.0
      ],
      [
        "<|reserved_88|>",
        0.0
      ],
      [
        "<|reserved_89|>",
        0.0
      ],
      [
        "<|reserved_90|>",
        0.0
      ],
      [
        "<|reserved_91|>",
        0.0
      ],
      [
        "<|reserved_92|>",
        0.0
      ],
      [
        "<|reserved_93|>",
        0.0
      ],
      [
        "<|reserved_94|>",
        0.0
      ],
      [
        "<|reserved_95|>",
        0.0
      ],
      [
        "<|reserved_96|>",
        0.0
      ],
      [
        "<|reserved_97|>",
        0.0
      ],
      [
        "<|reserved_98|>",
        0.0
      ],
      [
        "<|reserved_99|>",
        0.0
      ],
      [
        "<0x00>",
        0.0
      ],
      [
        "<0x01>",
        0.0
      ],
      [
        "<0x02>",
        0.0
      ],
      [
        "<0x03>",
        0.0
      ],
      [
        "<0x04>",
        0.0
      ],
      [
        "<0x05>",
        0.0
      ],
      [
        "<0x06>",
        0.0
      ],
      [
        "<0x07>",
        0.0
      ],
      [
        "<0x08>",
        0.0
      ],
      [
        "<0x09>",
        0.0
      ],
      [
        "<0x0A>",
        0.0
      ],
      [
        "<0x0B>",
        0.0
      ],
      [
        "<0x0C>",
        0.0
      ],
      [
        "<0x0D>",
        0.0
      ],
      [
        "<0x0E>",
        0.0
      ],
      [
        "<0x0F>",
        0.0
      ],
      [
        "<0x10>",
        0.0
      ],
      [
        "<0x11>",
        0.0
      ],
      [
        "<0x12>",
        0.0
      ],
      [
        "<0x13>",
        0.0
      ],
      [
        "<0x14>",
        0.0
      ],
      [
        "<0x15>",
        0.0
      ],
      [
        "<0x16>",
        0.0
      ],
      [
        "<0x17>",
        0.0
      ],
      [
        "<0x18>",
        0.0
      ],
      [
        "<0x19>",
        0.0
      ],
      [
        "<0x1A>",
        0.0
      ],
      [
        "<0x1B>",
        0.0
      ],
      [
        "<0x1C>",
        0.0
      ],
      [
        "<0x1D>",
        0.0
      ],
      [
        "<0x1E>",
        0.0
      ],
      [
        "<0x1F>",
        0.0
      ],
      [
        "<0x20>",
        0.0
      ],
      [
        "<0x21>",
        0.0
      ],
      [
        "<0x22>",
        0.0
      ],
      [
        "<0x23>",
        0.0
      ],
      [
        "<0x24>",
        0.0
      ],
      [
        "<0x25>",
        0.0
      ],
      [
        "<0x26>",
        0.0
      ],
      [
        "<0x27>",
        0.0
      ],
      [
        "<0x28>",
        0.0
      ],
      [
        "<0x29>",
        0.0
      ],
      [
        "<0x2A>",
        0.0
      ],
      [
        "<0x2B>",
        0.0
      ],
      [
        "<0x2C>",
        0.0
      ],
      [
        "<0x2D>",
        0.0
      ],
      [
        "<0x2E>",
        0.0
      ],
      [
        "<0x2F>",
        0.0
      ],
      [
        "<0x30>",
        0.0
      ],
      [
        "<0x31>",
        0.0
      ],
      [
        "<0x32>",
        0.0
      ],
      [
        "<0x33>",
        0.0
      ],
      [
        "<0x34>",
        0.0
      ],
      [
        "<0x35>",
        0.0
      ],
      [
        "<0x36>",
        0.0
      ],
      [
        "<0x37>",
        0.0
      ],
      [
        "<0x38>",
        0.0
      ],
      [
        "<0x39>",
        0.0
      ],
      [
        "<0x3A>",
        0.0
      ],
      [
        "<0x3B>",
        0.0
      ],
      [
        "<0x3C>",
        0.0
      ],
      [
        "<0x3D>",
        0.0
      ],
      [
        "<0x3E>",
        0.0
      ],
      [
        "<0x3F>",
        0.0
      ],
      [
        "<0x40>",
        0.0
      ],
      [
        "<0x41>",
        0.0
      ],
      [
        "<0x42>",
        0.0
      ],
      [
        "<0x43>",
        0.0
      ],
      [
        "<0x44>",
        0.0
      ],
      [
        "<0x45>",
        0.0
      ],
      [
        "<0x46>",
        0.0
      ],
      [
        "<0x47>",
        0.0
      ],
      [
        "<0x48>",
        0.0
      ],
      [
        "<0x49>",
        0.0
      ],
      [
        "<0x4A>",
        0.0
      ],
      [
        "<0x4B>",
        0.0
      ],
      [
        "<0x4C>",
        0.0
      ],
      [
        "<0x4D>",
        0.0
      ],
      [
        "<0x4E>",
        0.0
      ],
      [
        "<0x4F>",
        0.0
      ],
      [
        "<0x50>",
        0.0
      ],
      [
        "<0x51>",
        0.0
      ],
      [
        "<0x52>",
        0.0
      ],
      [
        "<0x53>",
        0.0
      ],
      [
        "<0x54>",
        0.0
      ],
      [
        "<0x55>",
        0.0
      ],
      [
        "<0x56>",
        0.0
      ],
      [
        "<0x57>",
        0.0
      ],
      [
        "<0x58>",
        0.0
      ],
      [
        "<0x59>",
        0.0
      ],
      [
        "<0x5A>",
        0.0
      ],
      [
        "<0x5B>",
        0.0
      ],
      [
        "<0x5C>",
        0.0
      ],
      [
        "<0x5D>",
        0.0
      ],
      [
        "<0x5E>",
        0.0
      ],
      [
        "<0x5F>",
        0.0
      ],
      [
        "<0x60>",
        0.0
      ],
      [
        "<0x61>",
        0.0
      ],
      [
        "<0x62>",
        0.0
      ],
      [
        "<0x63>",
        0.0
      ],
      [
        "<0x64>",
        0.0
      ],
      [
        "<0x65>",
        0.0
      ],
      [
        "<0x66>",
        0.0
      ],
      [
        "<0x67>",
        0.0
      ],
      [
        "<0x68>",
        0.0
      ],
      [
        "<0x69>",
        0.0
      ],
      [
        "<0x6A>",
        0.0
      ],
      [
        "<0x6B>",
        0.0
      ],
      [
        "<0x6C>",
        0.0
      ],
      [
        "<0x6D>",
        0.0
      ],
      [
        "<0x6E>",
        0.0
      ],
      [
        "<0x6F>",
        0.0
      ],
      [
        "<0x70>",
        0.0
      ],
      [
        "<0x71>",
        0.0
      ],
      [
        "<0x72>",
        0.0
      ],
      [
        "<0x73>",
        0.0
      ],
      [
        "<0x74>",
        0.0
      ],
      [
        "<0x75>",
        0.0
      ],
      [
        "<0x76>",
        0.0
      ],
      [
        "<0x77>",
        0.0
      ],
      [
        "<0x78>",
        0.0
      ],
      [
        "<0x79>",
        0.0
      ],
      [
        "<0x7A>",
        0.0
      ],
      [
        "<0x7B>",
        0.0
      ],
      [
        "<0x7C>",
        0.0
      ],
      [
        "<0x7D>",
        0.0
      ],
      [
        "<0x7E>",
        0.0
      ],
      [
        "<0x7F>",
        0.0
      ],
      [
        "<0x80>",
        0.0
      ],
      [
        "<0x81>",
        0.0
      ],
      [
        "<0x82>",
        0.0
      ],
      [
        "<0x83>",
        0.0
      ],
      [
        "<0x84>",
        0.0
      ],
      [
        "<0x85>",
        0.0
      ],
      [
        "<0x86>",
        0.0
      ],
      [
        "<0x87>",
        0.0
      ],
      [
        "<0x88>",
        0.0
      ],
      [
        "<0x89>",
        0.0
      ],
      [
        "<0x8A>",
        0.0
      ],
      [
        "<0x8B>",
        0.0
      ],
      [
        "<0x8C>",
        0.0
      ],
      [
        "<0x8D>",
        0.0
      ],
      [
        "<0x8E>",
        0.0
      ],
      [
        "<0x8F>",
        0.0
      ],
      [
        "<0x90>",
        0.0
      ],
      [
        "<0x91>",
        0.0
      ],
      [
        "<0x92>",
        0.0
      ],
      [
        "<0x93>",
        0.0
      ],
      [
        "<0x94>",
        0.0
      ],
      [
        "<0x95>",
        0.0
      ],
      [
        "<0x96>",
        0.0
      ],
      [
        "<0x97>",
        0.0
      ],
      [
        "<0x98>",
        0.0
      ],
      [
        "<0x99>",
        0.0
      ],
      [
        "<0x9A>",
        0.0
      ],
      [
        "<0x9B>",
        0.0
      ],
      [
        "<0x9C>",
        0.0
      ],
      [
        "<0x9D>",
        0.0
      ],
      [
        "<0x9E>",
        0.0
      ],
      [
        "<0x9F>",
        0.0
      ],
      [
        "<0xA0>",
        0.0
      ],
      [
        "<0xA1>",
        0.0
      ],
      [
        "<0xA2>",
        0.0
      ],
      [
        "<0xA3>",
        0.0
      ],
      [
        "<0xA4>",
        0.0
      ],
      [
        "<0xA5>",
        0.0
      ],
      [
        "<0xA6>",
        0.0
      ],
      [
        "<0xA7>",
        0.0
      ],
      [
        "<0xA8>",
        0.0
      ],
      [
        "<0xA9>",
        0.0
      ],
      [
        "<0xAA>",
        0.0
      ],
      [
        "<0xAB>",
        0.0
      ],
      [
        "<0xAC>",
        0.0
      ],
      [
        "<0xAD>",
        0.0
      ],
      [
        "<0xAE>",
        0.0
      ],
      [
        "<0xAF>",
        0.0
      ],
      [
        "<0xB0>",
        0.0
      ],
      [
        "<0xB1>",
        0.0
      ],
      [
        "<0xB2>",
        0.0
      ],
      [
        "<0xB3>",
        0.0
      ],
      [
        "<0xB4>",
        0.0
      ],
      [
        "<0xB5>",
        0.0
      ],
      [
        "<0xB6>",
        0.0
      ],
      [
        "<0xB7>",
        0.0
      ],
      [
        "<0xB8>",
        0.0
      ],
      [
        "<0xB9>",
        0.0
      ],
      [
        "<0xBA>",
        0.0
      ],
      [
        "<0xBB>",
        0.0
      ],
      [
        "<0xBC>",
        0.0
      ],
      [
        "<0xBD>",
        0.0
      ],
      [
        "<0xBE>",
        0.0
      ],
      [
        "<0xBF>",
        0.0
      ],
      [
        "<0xC0>",
        0.0
      ],
      [
        "<0xC1>",
        0.0
      ],
      [
        "<0xC2>",
        0.0
      ],
      [
        "<0xC3>",
        0.0
      ],
      [
        "<0xC4>",
        0.0
      ],
      [
        "<0xC5>",
        0.0
      ],
      [
        "<0xC6>",
        0.0
      ],
      [
        "<0xC7>",
        0.0
      ],
      [
        "<0xC8>",
        0.0
      ],
      [
        "<0xC9>",
        0.0
      ],
      [
        "<0xCA>",
        0.0
      ],
      [
        "<0xCB>",
        0.0
      ],
      [
        "<0xCC>",
        0.0
      ],
      [
        "<0xCD>",
        0.0
      ],
      [
        "<0xCE>",
        0.0
      ],
      [
        "<0xCF>",
        0.0
      ],
      [
        "<0xD0>",
        0.0
      ],
      [
        "<0xD1>",
        0.0
      ],
      [
        "<0xD2>",
        0.0
      ],
      [
        "<0xD3>",
        0.0
      ],
      [
        "<0xD4>",
        0.0
      ],
      [
        "<0xD5>",
        0.0
      ],
      [
        "<0xD6>",
        0.0
      ],
      [
        "<0xD7>",
        0.0
      ],
      [
        "<0xD8>",
        0.0
      ],
      [
        "<0xD9>",
        0.0
      ],
      [
        "<0xDA>",
        0.0
      ],
      [
        "<0xDB>",
        0.0
      ],
      [
        "<0xDC>",
        0.0
      ],
      [
        "<0xDD>",
        0.0
      ],
      [
        "<0xDE>",
        0.0
      ],
      [
        "<0xDF>",
        0.0
      ],
      [
        "<0xE0>",
        0.0
      ],
      [
        "<0xE1>",
        0.0
      ],
      [
        "<0xE2>",
        0.0
      ],
      [
        "<0xE3>",
        0.0
      ],
      [
        "<0xE4>",
        0.0
      ],
      [
        "<0xE5>",
        0.0
      ],
      [
        "<0xE6>",
        0.0
      ],
      [
        "<0xE7>",
        0.0
      ],
      [
        "<0xE8>",
        0.0
      ],
      [
        "<0xE9>",
        0.0
      ],
      [
        "<0xEA>",
        0.0
      ],
      [
        "<0xEB>",
        0.0
      ],
      [
        "<0xEC>",
        0.0
      ],
      [
        "<0xED>",
        0.0
      ],
      [
        "<0xEE>",
        0.0
      ],
      [
        "<0xEF>",
        0.0
      ],
      [
        "<0xF0>",
        0.0
      ],
      [
        "<0xF1>",
        0.0
      ],
      [
        "<0xF2>",
        0.0
      ],
      [
        "<0xF3>",
        0.0
      ],
      [
        "<0xF4>",
        0.0
      ],
      [
        "<0xF5>",
        0.0
      ],
      [
        "<0xF6>",
        0.0
      ],
      [
        "<0xF7>",
        0.0
      ],
      [
        "<0xF8>",
        0.0
      ],
      [
        "<0xF9>",
        0.0
      ],
      [
        "<0xFA>",
        0.0
      ],
      [
        "<0xFB>",
        0.0
      ],
      [
        "<0xFC>",
        0.0
      ],
      [
        "<0xFD>",
        0.0
      ],
      [
        "<0xFE>",
        0.0
      ],
      [
        "<0xFF>",
        0.0
      ],
      [
        "।",
        -3.1437017917633057
      ],
      [
        ",",
        -3.57377290725708
      ],
      [
        "▁",
        -4.6791534423828125
      ],
      [
        ".",
        -4.812530040740967
      ],
      [
        "ের",
        -4.838809013366699
      ],
      [
        "-",
        -4.906944274902344
      ],
      [
        "র",
        -5.01012659072876
      ],
      [
        "▁ও",
        -5.046954154968262
      ],
      [
        "▁the",
        -5.125710487365723
      ],
      [
        "▁করে",
        -5.1427693367004395
      ],
      [
        "▁এবং",
        -5.346826553344727
      ],
      [
        "ে",
        -5.379759311676025
      ],
      [
        "s",
        -5.403714656829834
      ],
      [
        "▁না",
        -5.467467308044434
      ],
      [
        "▁(",
        -5.49055290222168
      ],
      [
        "▁থেকে",
        -5.502954006195068
      ],
      [
        "▁এই",
        -5.531030178070068
      ],
      [
        ")",
        -5.560487270355225
      ],
      [
        "▁হয়",
        -5.571508407592773
      ],
      [
        "▁of",
        -5.587783336639404
      ],
      [
        "▁করা",
        -5.6311469078063965
      ],
      [
        "কে",
        -5.656901836395264
      ],
      [
        "▁and",
        -5.720173358917236
      ],
      [
        "▁এ",
        -5.801023960113525
      ],
      [
        "▁to",
        -5.829858303070068
      ],
      [
        "’",
        -5.8420305252075195
      ],
      [
        "▁জন্য",
        -5.882612705230713
      ],
      [
        "ই",
        -5.897463798522949
      ],
      [
        "▁তিনি",
        -5.910458564758301
      ],
      [
        "ও",
        -5.9253644943237305
      ],
      [
        "▁তার",
        -5.938735008239746
      ],
      [
        "▁একটি",
        -5.947203159332275
      ],
      [
        "▁a",
        -6.023092269897461
      ],
      [
        "▁হবে",
        -6.058739185333252
      ],
      [
        "▁করতে",
        -6.074277400970459
      ],
      [
        "▁হয়েছে",
        -6.077294826507568
      ],
      [
        "▁in",
        -6.104568958282471
      ],
      [
        ":",
        -6.106246471405029
      ],
      [
        "▁এর",
        -6.191674709320068
      ],
      [
        "▁করেন",
        -6.2289605140686035
      ],
      [
        "▁নিয়ে",
        -6.259036064147949
      ],
      [
        "▁যে",
        -6.283913612365723
      ],
      [
        "▁আর",
        -6.2839179039001465
      ],
      [
        "▁এক",
        -6.296779632568359
      ],
      [
        "▁হয়ে",
        -6.371164321899414
      ],
      [
        "▁বা",
        -6.387906074523926
      ],
      [
        "▁‘",
        -6.406349182128906
      ],
      [
        "▁মধ্যে",
        -6.470858097076416
      ],
      [
        "▁বলেন",
        -6.489955425262451
      ],
      [
        "?",
        -6.519620418548584
      ],
      [
        "টি",
        -6.521913051605225
      ],
      [
        "▁যায়",
        -6.523924350738525
      ],
      [
        "তে",
        -6.529032230377197
      ],
      [
        "▁তাদের",
        -6.547049045562744
      ],
      [
        "▁is",
        -6.550267219543457
      ],
      [
        "▁-",
        -6.587909698486328
      ],
      [
        "▁সময়",
        -6.60020112991333
      ],
      [
        "▁বলে",
        -6.6251325607299805
      ],
      [
        "▁পর",
        -6.640754222869873
      ],
      [
        "▁দিয়ে",
        -6.641413688659668
      ],
      [
        "▁করার",
        -6.6716742515563965
      ],
      [
        "▁সাথে",
        -6.672980308532715
      ],
      [
        "য়",
        -6.712921142578125
      ],
      [
        "▁কিন্তু",
        -6.724457263946533
      ],
      [
        "▁আমি",
        -6.77482271194458
      ],
      [
        "▁ছিল",
        -6.791598320007324
      ],
      [
        "▁তবে",
        -6.791687965393066
      ],
      [
        "▁কথা",
        -6.792534351348877
      ],
      [
        "দের",
        -6.804817199707031
      ],
      [
        "ন",
        -6.815915107727051
      ],
      [
        "▁that",
        -6.828331470489502
      ],
      [
        "▁পারে",
        -6.831660270690918
      ],
      [
        "রা",
        -6.841559410095215
      ],
      [
        "▁সঙ্গে",
        -6.846551895141602
      ],
      [
        "▁আমার",
        -6.857787609100342
      ],
      [
        "▁তারা",
        -6.860571384429932
      ],
      [
        "▁তা",
        -6.863319396972656
      ],
      [
        "▁রয়েছে",
        -6.871330261230469
      ],
      [
        "▁কিছু",
        -6.883878231048584
      ],
      [
        "▁কাজ",
        -6.9135236740112305
      ],
      [
        "▁শুরু",
        -6.916487693786621
      ],
      [
        "▁for",
        -6.9178338050842285
      ],
      [
        "▁আমাদের",
        -6.9364705085754395
      ],
      [
        "▁সেই",
        -6.947542190551758
      ],
      [
        "▁সালে",
        -6.960796356201172
      ],
      [
        "▁আমরা",
        -6.963078022003174
      ],
      [
        "▁সে",
        -6.965999603271484
      ],
      [
        "স",
        -6.988412857055664
      ],
      [
        "▁কি",
        -6.998960494995117
      ],
      [
        "▁হচ্ছে",
        -7.001070499420166
      ],
      [
        "/",
        -7.002631187438965
      ],
      [
        "▁অনেক",
        -7.008046627044678
      ],
      [
        "▁আপনার",
        -7.014732837677002
      ],
      [
        "া",
        -7.02478551864624
      ],
      [
        "▁বিভিন্ন",
        -7.029343128204346
      ],
      [
        "▁হিসেবে",
        -7.032259464263916
      ],
      [
        "▁আছে",
        -7.037948131561279
      ],
      [
        "▁“",
        -7.049159049987793
      ],
      [
        "▁যা",
        -7.049651622772217
      ],
      [
        "▁কোনো",
        -7.053895950317383
      ],
      [
        "▁কোন",
        -7.063889503479004
      ],
      [
        "▁হতে",
        -7.092257022857666
      ],
      [
        "▁করেছেন",
        -7.098995685577393
      ],
      [
        "ি",
        -7.106689453125
      ],
      [
        "▁প্রথম",
        -7.110299587249756
      ],
      [
        "▁হাজার",
        -7.112902641296387
      ],
      [
        "▁The",
        -7.114470958709717
      ],
      [
        "▁জন",
        -7.122937202453613
      ],
      [
        "▁ছিলেন",
        -7.1358561515808105
      ],
      [
        "▁টাকা",
        -7.138218402862549
      ],
      [
        "▁করেছে",
        -7.147533893585205
      ],
      [
        "▁বছর",
        -7.151948928833008
      ],
      [
        "▁থাকে",
        -7.156537055969238
      ],
      [
        "▁বেশি",
        -7.160777568817139
      ],
      [
        "ing",
        -7.164277076721191
      ],
      [
        "▁are",
        -7.172595977783203
      ],
      [
        "▁পর্যন্ত",
        -7.190079689025879
      ],
      [
        "ed",
        -7.197634696960449
      ],
      [
        "▁আগে",
        -7.201804161071777
      ],
      [
        "'",
        -7.213022232055664
      ],
      [
        "▁তাই",
        -7.213199615478516
      ],
      [
        "▁বাংলাদেশ",
        -7.2141618728637695
      ],
      [
        "▁সব",
        -7.21931266784668
      ],
      [
        "▁এটি",
        -7.225700378417969
      ],
      [
        "সহ",
        -7.226551055908203
      ],
      [
        "▁জানান",
        -7.230249404907227
      ],
      [
        "▁as",
        -7.234151363372803
      ],
      [
        "▁দেখা",
        -7.235832214355469
      ],
      [
        "▁with",
        -7.241264820098877
      ],
      [
        "▁আপনি",
        -7.248058795928955
      ],
      [
        "▁আরও",
        -7.250241279602051
      ],
      [
        "▁কাছে",
        -7.252037048339844
      ],
      [
        "▁নতুন",
        -7.25582218170166
      ],
      [
        "▁নয়",
        -7.257838249206543
      ],
      [
        "!",
        -7.257923603057861
      ],
      [
        "▁on",
        -7.259658336639404
      ],
      [
        "ক",
        -7.283099174499512
      ],
      [
        "▁এখন",
        -7.294773101806641
      ],
      [
        "▁দিন",
        -7.301896572113037
      ],
      [
        "টা",
        -7.303805828094482
      ],
      [
        "▁মাধ্যমে",
        -7.306127548217773
      ],
      [
        "▁নেই",
        -7.308781623840332
      ],
      [
        "▁মনে",
        -7.313459873199463
      ],
      [
        "▁তাকে",
        -7.317753791809082
      ],
      [
        "▁দুই",
        -7.32491397857666
      ],
      [
        "▁be",
        -7.338860511779785
      ],
      [
        "▁গত",
        -7.3536505699157715
      ],
      [
        "▁পুলিশ",
        -7.356134414672852
      ],
      [
        "▁যদি",
        -7.358831882476807
      ],
      [
        "▁একজন",
        -7.362203121185303
      ],
      [
        "▁একটা",
        -7.3735737800598145
      ],
      [
        "▁বড়",
        -7.376504898071289
      ],
      [
        "▁দিকে",
        -7.385289669036865
      ],
      [
        "▁পরে",
        -7.38670539855957
      ],
      [
        "▁ব্যবহার",
        -7.40530252456665
      ],
      [
        ";",
        -7.4087815284729
      ],
      [
        "▁সালের",
        -7.410512447357178
      ],
      [
        "ী",
        -7.410943031311035
      ],
      [
        "▁এমন",
        -7.420192718505859
      ],
      [
        "▁or",
        -7.421335697174072
      ],
      [
        "▁গেছে",
        -7.423000335693359
      ],
      [
        "▁ওই",
        -7.442189693450928
      ],
      [
        "▁দেওয়া",
        -7.451355457305908
      ],
      [
        "▁it",
        -7.453215599060059
      ],
      [
        "▁নাম",
        -7.453357696533203
      ],
      [
        "▁শেষ",
        -7.455268383026123
      ],
      [
        "▁by",
        -7.473451137542725
      ],
      [
        "▁প্রায়",
        -7.480963706970215
      ],
      [
        "▁প্রতি",
        -7.483213424682617
      ],
      [
        "▁জেলা",
        -7.492524147033691
      ],
      [
        "এ",
        -7.493002891540527
      ],
      [
        "▁–",
        -7.498239517211914
      ],
      [
        "▁প্রধান",
        -7.499255657196045
      ],
      [
        "▁দেশের",
        -7.505270481109619
      ],
      [
        "▁মতো",
        -7.50590181350708
      ],
      [
        "▁২",
        -7.508003234863281
      ],
      [
        "▁জাতীয়",
        -7.521785259246826
      ],
      [
        "▁ইসলাম",
        -7.522732257843018
      ],
      [
        "▁তাঁর",
        -7.527416229248047
      ],
      [
        "▁তৈরি",
        -7.528557300567627
      ],
      [
        "▁আজ",
        -7.528854846954346
      ],
      [
        "▁\"",
        -7.529466152191162
      ],
      [
        "▁১",
        -7.531448841094971
      ],
      [
        "ম",
        -7.533850193023682
      ],
      [
        "▁হলে",
        -7.538602828979492
      ],
      [
        "▁কারণে",
        -7.540091037750244
      ],
      [
        "▁দিতে",
        -7.540159225463867
      ],
      [
        "▁মানুষ",
        -7.549045085906982
      ],
      [
        "ল",
        -7.554508209228516
      ],
      [
        "▁:",
        -7.564505577087402
      ],
      [
        "▁মা",
        -7.576499938964844
      ],
      [
        "▁।",
        -7.582474231719971
      ],
      [
        "▁সরকার",
        -7.582815647125244
      ],
      [
        "▁ভালো",
        -7.585763931274414
      ],
      [
        "▁from",
        -7.587418556213379
      ],
      [
        "▁তো",
        -7.593993663787842
      ],
      [
        "d",
        -7.607081890106201
      ],
      [
        "না",
        -7.612378120422363
      ],
      [
        "▁বলা",
        -7.616155624389648
      ],
      [
        "▁সম্পাদক",
        -7.616916179656982
      ],
      [
        "▁যাবে",
        -7.618643760681152
      ],
      [
        "▁ধরে",
        -7.622254371643066
      ],
      [
        "▁হলো",
        -7.623086929321289
      ],
      [
        "▁মো",
        -7.62309980392456
      ],
      [
        "▁কারণ",
        -7.624692440032959
      ],
      [
        "▁সাধারণ",
        -7.626744270324707
      ],
      [
        "▁হল",
        -7.635903358459473
      ],
      [
        "▁তথ্য",
        -7.638019561767578
      ],
      [
        "▁উপজেলা",
        -7.648575782775879
      ],
      [
        "▁সদস্য",
        -7.650034427642822
      ],
      [
        "▁হয়েছিল",
        -7.659293174743652
      ],
      [
        "▁বাংলাদেশের",
        -7.659803867340088
      ],
      [
        "▁তখন",
        -7.660720348358154
      ],
      [
        "▁was",
        -7.665783882141113
      ],
      [
        "▁৩",
        -7.66658353805542
      ],
      [
        "▁you",
        -7.67310905456543
      ],
      [
        "▁খুব",
        -7.67987585067749
      ],
      [
        "▁রহমান",
        -7.682738780975342
      ],
      [
        "▁পারেন",
        -7.682982444763184
      ],
      [
        "▁মানুষের",
        -7.684469223022461
      ],
      [
        "▁নিজের",
        -7.685393333435059
      ],
      [
        "▁can",
        -7.6873016357421875
      ],
      [
        "▁বিরুদ্ধে",
        -7.689916610717773
      ],
      [
        "তা",
        -7.706474781036377
      ],
      [
        "▁পাওয়া",
        -7.712278842926025
      ],
      [
        "▁জানা",
        -7.721851348876953
      ],
      [
        "t",
        -7.723762035369873
      ],
      [
        "▁করছে",
        -7.740980625152588
      ],
      [
        "▁করুন",
        -7.746695041656494
      ],
      [
        "▁৫",
        -7.749366760253906
      ],
      [
        "▁have",
        -7.7568206787109375
      ],
      [
        "”",
        -7.757150650024414
      ],
      [
        "▁দেয়",
        -7.757986545562744
      ],
      [
        "▁হোসেন",
        -7.759786605834961
      ],
      [
        "গুলো",
        -7.759810447692871
      ],
      [
        "এর",
        -7.763714790344238
      ],
      [
        "▁শেখ",
        -7.765105724334717
      ],
      [
        "▁আরো",
        -7.768011569976807
      ],
      [
        "▁বিষয়ে",
        -7.76927661895752
      ],
      [
        "▁দেন",
        -7.776403903961182
      ],
      [
        "▁উপর",
        -7.776858806610107
      ],
      [
        "▁ফলে",
        -7.784113883972168
      ],
      [
        "▁ঢাকা",
        -7.7849507331848145
      ],
      [
        "▁কে",
        -7.785308361053467
      ],
      [
        "▁an",
        -7.793269157409668
      ],
      [
        "▁at",
        -7.795865535736084
      ],
      [
        "ঃ",
        -7.803010940551758
      ],
      [
        "▁বিশেষ",
        -7.807410717010498
      ],
      [
        "▁যখন",
        -7.80974817276001
      ],
      [
        "▁১০",
        -7.8111891746521
      ],
      [
        "\"",
        -7.818419456481934
      ],
      [
        "▁পড়ে",
        -7.820301532745361
      ],
      [
        "▁হন",
        -7.8215651512146
      ],
      [
        "▁হওয়ার",
        -7.823953628540039
      ],
      [
        "▁this",
        -7.826755523681641
      ],
      [
        "ত",
        -7.827784061431885
      ],
      [
        "▁আবার",
        -7.831380367279053
      ],
      [
        "ার",
        -7.831648349761963
      ],
      [
        "▁বেশ",
        -7.838109016418457
      ],
      [
        "▁সভাপতি",
        -7.840535163879395
      ],
      [
        "▁তাহলে",
        -7.843603134155273
      ],
      [
        "▁৪",
        -7.854101181030273
      ],
      [
        "▁লাখ",
        -7.857851505279541
      ],
      [
        "▁দলের",
        -7.862191200256348
      ],
      [
        "▁দল",
        -7.862751960754395
      ],
      [
        "▁কেউ",
        -7.864856243133545
      ],
      [
        "ly",
        -7.865427017211914
      ],
      [
        "▁করবে",
        -7.867946147918701
      ],
      [
        "▁not",
        -7.868924617767334
      ],
      [
        "▁অংশ",
        -7.869663238525391
      ],
      [
        "▁চলে",
        -7.884442329406738
      ],
      [
        "▁গিয়ে",
        -7.889533996582031
      ],
      [
        "▁দেশে",
        -7.889634609222412
      ],
      [
        "),",
        -7.890090465545654
      ],
      [
        "▁সহ",
        -7.893401145935059
      ],
      [
        "▁যেতে",
        -7.896417617797852
      ],
      [
        "▁ধরনের",
        -7.900221824645996
      ],
      [
        "▁নামে",
        -7.901339054107666
      ],
      [
        "▁অন্য",
        -7.902016162872315
      ],
      [
        "▁A",
        -7.915489196777344
      ],
      [
        "▁উপজেলার",
        -7.920112133026123
      ],
      [
        "▁সেখানে",
        -7.921576023101807
      ],
      [
        "জ",
        -7.931135177612305
      ],
      [
        "▁কী",
        -7.932309627532959
      ],
      [
        "▁কম",
        -7.938170433044434
      ],
      [
        "▁অভিযোগ",
        -7.944852352142334
      ],
      [
        "▁আওয়ামী",
        -7.945862770080566
      ],
      [
        "▁এতে",
        -7.947595119476318
      ],
      [
        "▁উত্তর",
        -7.947818756103516
      ],
      [
        "▁তিন",
        -7.948860645294189
      ],
      [
        "▁এটা",
        -7.953145503997803
      ],
      [
        "নি",
        -7.95504093170166
      ],
      [
        "▁বছরের",
        -7.955678939819336
      ],
      [
        "▁এসব",
        -7.959569931030273
      ],
      [
        "▁টি",
        -7.959588527679443
      ],
      [
        "ব",
        -7.959609508514404
      ],
      [
        "▁ভারতের",
        -7.963146686553955
      ],
      [
        "▁বন্ধ",
        -7.963685035705566
      ],
      [
        "▁ক্ষেত্রে",
        -7.969046115875244
      ],
      [
        "▁দেয়া",
        -7.975057601928711
      ],
      [
        "▁একই",
        -7.978507041931152
      ],
      [
        "▁ব্যবস্থা",
        -7.979094982147217
      ],
      [
        "▁নিতে",
        -7.9798479080200195
      ],
      [
        "▁প্রকাশ",
        -7.980634689331055
      ],
      [
        "▁যার",
        -7.986727714538574
      ],
      [
        "▁শিক্ষা",
        -7.987445831298828
      ],
      [
        "▁চেষ্টা",
        -7.98875093460083
      ],
      [
        "▁ভারতীয়",
        -7.992197036743164
      ],
      [
        "বি",
        -8.004409790039062
      ],
      [
        "er",
        -8.007699012756348
      ],
      [
        "▁৬",
        -8.012371063232422
      ],
      [
        "▁প্রধানমন্ত্রী",
        -8.017416000366211
      ],
      [
        "▁থাকা",
        -8.02042007446289
      ],
      [
        "▁কোটি",
        -8.021221160888672
      ],
      [
        "▁ই",
        -8.027125358581543
      ],
      [
        "ভাবে",
        -8.032752990722656
      ],
      [
        "▁their",
        -8.036540985107422
      ],
      [
        "▁অন্যান্য",
        -8.047252655029297
      ],
      [
        "▁এখানে",
        -8.049792289733887
      ],
      [
        "▁শুধু",
        -8.05206298828125
      ],
      [
        "▁সম্পর্কে",
        -8.057330131530762
      ],
      [
        "▁এবার",
        -8.05856704711914
      ],
      [
        "▁করবেন",
        -8.061264038085938
      ],
      [
        "▁ছেলে",
        -8.063600540161133
      ],
      [
        "▁দু",
        -8.064992904663086
      ],
      [
        "▁দেশ",
        -8.066041946411133
      ],
      [
        "শ",
        -8.071037292480469
      ],
      [
        "▁খবর",
        -8.071270942687988
      ],
      [
        "▁যারা",
        -8.074226379394531
      ],
      [
        "▁করি",
        -8.075470924377441
      ],
      [
        "▁যাচ্ছে",
        -8.076407432556152
      ],
      [
        "▁ঘটনা",
        -8.078536033630371
      ],
      [
        "▁I",
        -8.07860279083252
      ],
      [
        "▁কর্মকর্তা",
        -8.082486152648926
      ],
      [
        "গুলি",
        -8.083356857299805
      ],
      [
        "▁খান",
        -8.083473205566406
      ],
      [
        "▁In",
        -8.083539009094238
      ],
      [
        "▁উপস্থিত",
        -8.086539268493652
      ],
      [
        "▁সামনে",
        -8.087360382080078
      ],
      [
        "▁অ",
        -8.088761329650879
      ],
      [
        "▁বি",
        -8.09018611907959
      ],
      [
        "▁তুলে",
        -8.093301773071289
      ],
      [
        "▁করেছিলেন",
        -8.094797134399414
      ],
      [
        "▁দেখে",
        -8.098332405090332
      ],
      [
        "▁আল",
        -8.098361015319824
      ],
      [
        "▁হাতে",
        -8.099328994750977
      ],
      [
        "▁এরপর",
        -8.099996566772461
      ],
      [
        "▁চেয়ারম্যান",
        -8.101408004760742
      ],
      [
        "▁your",
        -8.102933883666992
      ],
      [
        "▁দাবি",
        -8.10465145111084
      ],
      [
        "▁নিশ্চিত",
        -8.105531692504883
      ],
      [
        "▁নারী",
        -8.10789680480957
      ],
      [
        "▁সকল",
        -8.108466148376465
      ],
      [
        "▁জীবন",
        -8.108846664428711
      ],
      [
        "▁এলাকায়",
        -8.111390113830566
      ],
      [
        "▁কেন",
        -8.112336158752441
      ],
      [
        "▁করছেন",
        -8.114235877990723
      ],
      [
        "পুর",
        -8.115039825439453
      ],
      [
        "▁আন্তর্জাতিক",
        -8.119277954101562
      ],
      [
        "▁ঘোষণা",
        -8.122308731079102
      ],
      [
        "ো",
        -8.123117446899414
      ],
      [
        "▁হিসাবে",
        -8.1232271194458
      ],
      [
        "▁সরকারের",
        -8.12520980834961
      ],
      [
        "▁দেখতে",
        -8.125251770019531
      ],
      [
        "▁ওপর",
        -8.12853717803955
      ],
      [
        "▁ছবি",
        -8.128753662109375
      ],
      [
        "▁which",
        -8.130041122436523
      ],
      [
        "▁সবচেয়ে",
        -8.131084442138672
      ],
      [
        "▁স্থানীয়",
        -8.132803916931152
      ],
      [
        "▁ছোট",
        -8.134662628173828
      ],
      [
        "▁দ্বিতীয়",
        -8.13693618774414
      ],
      [
        "▁they",
        -8.143775939941406
      ],
      [
        "▁মে",
        -8.144461631774902
      ],
      [
        "▁করোনা",
        -8.149216651916504
      ],
      [
        "▁যেন",
        -8.150550842285156
      ],
      [
        "▁ঠিক",
        -8.15521240234375
      ],
      [
        "▁পাশাপাশি",
        -8.159283638000488
      ],
      [
        "▁যেমন",
        -8.160813331604004
      ],
      [
        "y",
        -8.161239624023438
      ],
      [
        "▁এসে",
        -8.161476135253906
      ],
      [
        "▁ছাড়া",
        -8.163290977478027
      ],
      [
        "▁থাকবে",
        -8.16455078125
      ],
      [
        "▁will",
        -8.166902542114258
      ],
      [
        "▁হাত",
        -8.167638778686523
      ],
      [
        "▁মৃত্যু",
        -8.167847633361816
      ],
      [
        "▁যান",
        -8.169723510742188
      ],
      [
        "▁সুযোগ",
        -8.170031547546387
      ],
      [
        "▁সরকারি",
        -8.171858787536621
      ],
      [
        "▁নির্বাচন",
        -8.172624588012695
      ],
      [
        "▁অনুষ্ঠিত",
        -8.173344612121582
      ],
      [
        "▁অর্থ",
        -8.174223899841309
      ],
      [
        "▁জেলার",
        -8.174347877502441
      ],
      [
        "▁সংখ্যা",
        -8.174747467041016
      ],
      [
        "▁ব্যক্তি",
        -8.177550315856934
      ],
      [
        "e",
        -8.17995834350586
      ],
      [
        "▁সময়ে",
        -8.18057918548584
      ],
      [
        "▁চলচ্চিত্র",
        -8.184967994689941
      ],
      [
        "al",
        -8.185973167419434
      ],
      [
        "▁বাংলা",
        -8.187989234924316
      ],
      [
        "▁more",
        -8.189846992492676
      ],
      [
        "▁দক্ষিণ",
        -8.1931791305542
      ],
      [
        "মা",
        -8.197370529174805
      ],
      [
        "▁৭",
        -8.203848838806152
      ],
      [
        "ট",
        -8.206452369689941
      ],
      [
        "▁জন্ম",
        -8.207770347595215
      ],
      [
        "▁সমস্যা",
        -8.210432052612305
      ],
      [
        "▁has",
        -8.21712875366211
      ],
      [
        "▁আসে",
        -8.21883773803711
      ],
      [
        "▁২০",
        -8.222732543945312
      ],
      [
        "▁পারবেন",
        -8.225417137145996
      ],
      [
        "▁করলে",
        -8.225735664367676
      ],
      [
        "িং",
        -8.226637840270996
      ],
      [
        "▁৮",
        -8.230313301086426
      ],
      [
        "▁স্বাস্থ্য",
        -8.231707572937012
      ],
      [
        "▁কোনও",
        -8.233805656433105
      ],
      [
        "▁পরীক্ষা",
        -8.23406982421875
      ],
      [
        "▁মত",
        -8.239376068115234
      ],
      [
        "▁থেকেই",
        -8.239447593688965
      ],
      [
        "▁হাসপাতালে",
        -8.239873886108398
      ],
      [
        "▁অনুযায়ী",
        -8.240228652954102
      ],
      [
        "▁তথ্যসূত্র",
        -8.252846717834473
      ],
      [
        "▁বিষয়টি",
        -8.253039360046387
      ],
      [
        "▁হয়েছেন",
        -8.259101867675781
      ],
      [
        "▁বের",
        -8.261154174804688
      ],
      [
        "▁মার্কিন",
        -8.262737274169922
      ],
      [
        "▁হওয়া",
        -8.263690948486328
      ],
      [
        "▁|",
        -8.264115333557129
      ],
      [
        "▁১৫",
        -8.264810562133789
      ],
      [
        "কা",
        -8.26782512664795
      ],
      [
        "▁গ্রহণ",
        -8.268669128417969
      ],
      [
        "১",
        -8.272537231445312
      ],
      [
        "▁হয়নি",
        -8.27602481842041
      ],
      [
        "▁নেতা",
        -8.27763843536377
      ],
      [
        "▁দ্বারা",
        -8.27795124053955
      ],
      [
        "▁দিয়েছে",
        -8.284274101257324
      ],
      [
        "▁মাঝে",
        -8.285745620727539
      ],
      [
        "▁গ্রামের",
        -8.286524772644043
      ],
      [
        "▁সিদ্ধান্ত",
        -8.286799430847168
      ],
      [
        "▁পালন",
        -8.286870956420898
      ],
      [
        "▁মোট",
        -8.297962188720703
      ],
      [
        "▁বর্তমানে",
        -8.298344612121582
      ],
      [
        "▁দায়িত্ব",
        -8.298426628112793
      ],
      [
        "▁জানিয়েছেন",
        -8.300631523132324
      ],
      [
        "▁বলেছেন",
        -8.303998947143555
      ],
      [
        "▁দুটি",
        -8.304888725280762
      ],
      [
        "লা",
        -8.308918952941895
      ],
      [
        "▁নি",
        -8.309103012084961
      ],
      [
        "▁'",
        -8.30931568145752
      ],
      [
        "▁শতাংশ",
        -8.311583518981934
      ],
      [
        "▁আগামী",
        -8.315356254577637
      ],
      [
        "▁আমাকে",
        -8.315934181213379
      ],
      [
        "▁রাখা",
        -8.317145347595215
      ],
      [
        "▁আলী",
        -8.322937965393066
      ],
      [
        "▁সাবেক",
        -8.32579231262207
      ],
      [
        "▁১৮",
        -8.32597541809082
      ],
      [
        "▁we",
        -8.326763153076172
      ],
      [
        "▁কলেজ",
        -8.330171585083008
      ],
      [
        "▁বাড়ি",
        -8.332457542419434
      ],
      [
        "▁চার",
        -8.333602905273438
      ],
      [
        "(",
        -8.334897994995117
      ],
      [
        "▁আ",
        -8.341384887695312
      ],
      [
        "▁লীগের",
        -8.344139099121094
      ],
      [
        "লি",
        -8.344806671142578
      ],
      [
        "▁বিষয়",
        -8.347700119018555
      ],
      [
        "▁মামলা",
        -8.34817123413086
      ],
      [
        "▁থাকতে",
        -8.350711822509766
      ],
      [
        "দ",
        -8.351086616516113
      ],
      [
        "▁চৌধুরী",
        -8.351961135864258
      ],
      [
        "▁আক্রান্ত",
        -8.353309631347656
      ],
      [
        "▁পেয়ে",
        -8.353672981262207
      ],
      [
        "▁সম্ভব",
        -8.353836059570312
      ],
      [
        "▁বলতে",
        -8.353948593139648
      ],
      [
        "▁রাখতে",
        -8.357483863830566
      ],
      [
        "▁এম",
        -8.35865306854248
      ],
      [
        "▁but",
        -8.358850479125977
      ],
      [
        "▁সেটা",
        -8.35917854309082
      ],
      [
        "▁রেখে",
        -8.362310409545898
      ],
      [
        "▁হক",
        -8.366016387939453
      ],
      [
        "▁বাবা",
        -8.369574546813965
      ],
      [
        "▁ইউনিয়ন",
        -8.369792938232422
      ],
      [
        "▁এছাড়া",
        -8.371606826782227
      ],
      [
        "▁all",
        -8.373005867004395
      ],
      [
        "▁প্রয়োজন",
        -8.373101234436035
      ],
      [
        "▁ভারত",
        -8.374083518981934
      ],
      [
        "▁প্রদান",
        -8.37533950805664
      ],
      [
        "প",
        -8.37834358215332
      ],
      [
        "▁দিয়েছেন",
        -8.379655838012695
      ],
      [
        "▁also",
        -8.379676818847656
      ],
      [
        "▁পানি",
        -8.380287170410156
      ],
      [
        "▁were",
        -8.380402565002441
      ],
      [
        "টির",
        -8.380965232849121
      ],
      [
        "▁one",
        -8.382271766662598
      ],
      [
        "▁একটু",
        -8.385478019714355
      ],
      [
        "▁প্রশ্ন",
        -8.386096000671387
      ],
      [
        "।’",
        -8.386756896972656
      ],
      [
        "▁হলেও",
        -8.387680053710938
      ],
      [
        "▁সকাল",
        -8.388428688049316
      ],
      [
        "▁শেষে",
        -8.388448715209961
      ],
      [
        "▁উদ্ধার",
        -8.39256763458252
      ],
      [
        "▁আলোচনা",
        -8.392709732055664
      ],
      [
        "▁পরিবারের",
        -8.397551536560059
      ],
      [
        "▁বক্তব্য",
        -8.403474807739258
      ],
      [
        "▁যেখানে",
        -8.406413078308105
      ],
      [
        "▁আইন",
        -8.407068252563477
      ],
      [
        "ং",
        -8.411980628967285
      ],
      [
        "▁মাত্র",
        -8.413740158081055
      ],
      [
        "সা",
        -8.414716720581055
      ],
      [
        "▁১২",
        -8.416047096252441
      ],
      [
        "▁নেওয়া",
        -8.41885757446289
      ],
      [
        "▁যাওয়ার",
        -8.420708656311035
      ],
      [
        "▁ড",
        -8.421296119689941
      ],
      [
        "▁রান",
        -8.42688274383545
      ],
      [
        "▁আপনাকে",
        -8.427403450012207
      ],
      [
        "ছে",
        -8.428149223327637
      ],
      [
        "▁জানতে",
        -8.428433418273926
      ],
      [
        "।”",
        -8.428446769714355
      ],
      [
        "বা",
        -8.429971694946289
      ],
      [
        "▁এলাকার",
        -8.431492805480957
      ],
      [
        "সি",
        -8.432863235473633
      ],
      [
        "২",
        -8.434865951538086
      ],
      [
        "▁নানা",
        -8.436675071716309
      ],
      [
        "▁গুরুত্বপূর্ণ",
        -8.43710994720459
      ],
      [
        "▁অব",
        -8.44132137298584
      ],
      [
        "▁রাজনৈতিক",
        -8.442473411560059
      ],
      [
        "▁রাতে",
        -8.443224906921387
      ],
      [
        "ফ",
        -8.443886756896973
      ],
      [
        "▁সদর",
        -8.445390701293945
      ],
      [
        "▁৯",
        -8.44681453704834
      ],
      [
        "ড",
        -8.452204704284668
      ],
      [
        "▁about",
        -8.45411205291748
      ],
      [
        "▁মারা",
        -8.45522403717041
      ],
      [
        "a",
        -8.457101821899414
      ],
      [
        "▁পা",
        -8.457849502563477
      ],
      [
        "▁ফিরে",
        -8.46147346496582
      ],
      [
        "▁পুরস্কার",
        -8.46336841583252
      ],
      [
        "▁সংবাদ",
        -8.463455200195312
      ],
      [
        "▁মাস",
        -8.465279579162598
      ],
      [
        "▁বিভাগের",
        -8.467513084411621
      ],
      [
        "▁মার্চ",
        -8.468528747558594
      ],
      [
        "▁যাওয়া",
        -8.46910285949707
      ],
      [
        "বে",
        -8.47287368774414
      ],
      [
        "▁৩০",
        -8.474261283874512
      ],
      [
        "▁২৪",
        -8.474377632141113
      ],
      [
        "▁চেয়ে",
        -8.47805404663086
      ],
      [
        "▁সি",
        -8.478852272033691
      ],
      [
        "▁লাভ",
        -8.47886848449707
      ],
      [
        "▁ভাবে",
        -8.483205795288086
      ],
      [
        "▁ইউনিয়নের",
        -8.485672950744629
      ],
      [
        "▁থানার",
        -8.488523483276367
      ],
      [
        "▁যোগ",
        -8.48852825164795
      ],
      [
        "▁মোহাম্মদ",
        -8.488641738891602
      ],
      [
        "▁This",
        -8.489917755126953
      ],
      [
        "▁আলম",
        -8.493033409118652
      ],
      [
        "–",
        -8.493319511413574
      ],
      [
        "▁অবস্থান",
        -8.493928909301758
      ],
      [
        "▁পরিচালক",
        -8.495659828186035
      ],
      [
        "▁দেওয়ার",
        -8.496414184570312
      ],
      [
        "▁ঘটে",
        -8.496888160705566
      ],
      [
        "▁সোমবার",
        -8.497326850891113
      ],
      [
        "▁অবস্থায়",
        -8.498368263244629
      ],
      [
        "▁ক্রিকেট",
        -8.500563621520996
      ],
      [
        "▁খাবার",
        -8.501930236816406
      ],
      [
        "▁বাইরে",
        -8.505133628845215
      ],
      [
        "▁সামাজিক",
        -8.506725311279297
      ],
      [
        "▁উচ্চ",
        -8.508273124694824
      ],
      [
        "▁গেল",
        -8.508570671081543
      ],
      [
        "▁other",
        -8.508622169494629
      ],
      [
        "▁ভাল",
        -8.509395599365234
      ],
      [
        "▁বর্তমান",
        -8.511067390441895
      ],
      [
        "▁উল্লেখ",
        -8.511907577514648
      ],
      [
        "▁সবাই",
        -8.512393951416016
      ],
      [
        "লে",
        -8.512739181518555
      ],
      [
        "▁১১",
        -8.518586158752441
      ],
      [
        "▁এগিয়ে",
        -8.519430160522461
      ],
      [
        "▁সৃষ্টি",
        -8.519434928894043
      ],
      [
        "▁বুধবার",
        -8.519720077514648
      ],
      [
        "▁মূল",
        -8.521227836608887
      ],
      [
        "▁রাত",
        -8.5233154296875
      ],
      [
        "▁অনুষ্ঠানে",
        -8.527186393737793
      ],
      [
        "▁শিক্ষক",
        -8.536495208740234
      ],
      [
        "▁বৃহস্পতিবার",
        -8.538653373718262
      ],
      [
        "in",
        -8.539929389953613
      ],
      [
        "▁উদ্দিন",
        -8.54008960723877
      ],
      [
        "▁ভাই",
        -8.540867805480957
      ],
      [
        "▁S",
        -8.541008949279785
      ],
      [
        "▁গেলে",
        -8.541457176208496
      ],
      [
        "▁হাসান",
        -8.541461944580078
      ],
      [
        "১৯",
        -8.544181823730469
      ],
      [
        "▁মঙ্গলবার",
        -8.544381141662598
      ],
      [
        "▁It",
        -8.54478645324707
      ],
      [
        "▁প্রাথমিক",
        -8.545129776000977
      ],
      [
        "▁বিশ্ববিদ্যালয়ের",
        -8.5472993850708
      ],
      [
        "▁কিংবা",
        -8.55292797088623
      ],
      [
        "▁সকালে",
        -8.552977561950684
      ],
      [
        "▁কেন্দ্র",
        -8.553430557250977
      ],
      [
        "▁কাজে",
        -8.553526878356934
      ],
      [
        "▁বসে",
        -8.555782318115234
      ],
      [
        "জি",
        -8.560338020324707
      ],
      [
        "▁তারপর",
        -8.560524940490723
      ],
      [
        "▁কেন্দ্রীয়",
        -8.561180114746094
      ],
      [
        "▁পুলিশের",
        -8.562650680541992
      ],
      [
        "es",
        -8.562981605529785
      ],
      [
        "▁স",
        -8.563549995422363
      ],
      [
        "▁বিশ্ব",
        -8.563579559326172
      ],
      [
        "▁আহমেদ",
        -8.564261436462402
      ],
      [
        "▁মন্তব্য",
        -8.56472110748291
      ],
      [
        "▁গড়ে",
        -8.569711685180664
      ],
      [
        "▁শনিবার",
        -8.56985855102539
      ],
      [
        "▁ভিডিও",
        -8.571659088134766
      ],
      [
        "n",
        -8.575577735900879
      ],
      [
        "▁পরিবর্তন",
        -8.576547622680664
      ],
      [
        "▁his",
        -8.576777458190918
      ],
      [
        "▁দ্রুত",
        -8.577218055725098
      ],
      [
        "▁বাড়িতে",
        -8.579227447509766
      ],
      [
        "▁অন্যতম",
        -8.5822172164917
      ],
      [
        "▁পান",
        -8.582975387573242
      ],
      [
        "▁দাম",
        -8.5839262008667
      ],
      [
        "▁ঘটনায়",
        -8.584366798400879
      ],
      [
        "গ",
        -8.585850715637207
      ],
      [
        "▁হার",
        -8.586251258850098
      ],
      [
        "▁যোগাযোগ",
        -8.58749008178711
      ],
      [
        "▁কয়েক",
        -8.590272903442383
      ],
      [
        "▁নিহত",
        -8.591597557067871
      ],
      [
        "ুল",
        -8.592214584350586
      ],
      [
        "হ",
        -8.59286880493164
      ],
      [
        "▁পায়",
        -8.593482971191406
      ],
      [
        "▁সু",
        -8.594069480895996
      ],
      [
        "ু",
        -8.594303131103516
      ],
      [
        "—",
        -8.595308303833008
      ],
      [
        "▁শুক্রবার",
        -8.595917701721191
      ],
      [
        "দা",
        -8.596877098083496
      ],
      [
        "বার",
        -8.597536087036133
      ],
      [
        "▁চলছে",
        -8.600406646728516
      ],
      [
        "▁এদিকে",
        -8.600918769836426
      ],
      [
        "▁স্ত্রী",
        -8.602965354919434
      ],
      [
        "▁১৭",
        -8.60302734375
      ],
      [
        "▁জুন",
        -8.603513717651367
      ],
      [
        "▁ডি",
        -8.605609893798828
      ],
      [
        "▁ব্যাপারে",
        -8.608394622802734
      ],
      [
        "▁জুলাই",
        -8.609879493713379
      ],
      [
        "▁শিশু",
        -8.610345840454102
      ],
      [
        "তার",
        -8.612133979797363
      ],
      [
        "▁উন্নয়ন",
        -8.614672660827637
      ],
      [
        "▁ভর্তি",
        -8.614974021911621
      ],
      [
        "▁বিশ্ববিদ্যালয়",
        -8.6150541305542
      ],
      [
        "য়ে",
        -8.615585327148438
      ],
      [
        "▁এপ্রিল",
        -8.616385459899902
      ],
      [
        "▁মাসে",
        -8.616732597351074
      ],
      [
        "▁বাংলাদেশে",
        -8.623711585998535
      ],
      [
        "▁পরিবার",
        -8.625645637512207
      ],
      [
        "▁লেখা",
        -8.62744426727295
      ],
      [
        "▁পাঁচ",
        -8.628308296203613
      ],
      [
        "▁পাশে",
        -8.629103660583496
      ],
      [
        "▁he",
        -8.630146980285645
      ],
      [
        "▁অথবা",
        -8.631847381591797
      ],
      [
        "▁দিনের",
        -8.63282585144043
      ],
      [
        "▁যাতে",
        -8.633319854736328
      ],
      [
        "▁অতিরিক্ত",
        -8.634136199951172
      ],
      [
        "▁এসেছে",
        -8.634284973144531
      ],
      [
        "▁থাকেন",
        -8.634380340576172
      ],
      [
        "▁উঠে",
        -8.635132789611816
      ],
      [
        "▁১৪",
        -8.635141372680664
      ],
      [
        "▁পরিচিত",
        -8.636492729187012
      ],
      [
        "▁চিকিৎসা",
        -8.637555122375488
      ],
      [
        "▁চাই",
        -8.637731552124023
      ],
      [
        "▁আবেদন",
        -8.637970924377441
      ],
      [
        "▁বার",
        -8.641523361206055
      ],
      [
        "▁বিএনপি",
        -8.641966819763184
      ],
      [
        "▁অক্টোবর",
        -8.642428398132324
      ],
      [
        "▁ধর্ম",
        -8.651217460632324
      ],
      [
        "▁বিক্রি",
        -8.651773452758789
      ],
      [
        "▁আটক",
        -8.651992797851562
      ],
      [
        "রি",
        -8.652268409729004
      ],
      [
        "▁বিশ্বাস",
        -8.654275894165039
      ],
      [
        "▁যদিও",
        -8.655257225036621
      ],
      [
        "▁সংসদ",
        -8.655611991882324
      ],
      [
        "▁who",
        -8.656049728393555
      ],
      [
        "▁নিজেদের",
        -8.658560752868652
      ],
      [
        "▁পক্ষে",
        -8.659211158752441
      ],
      [
        "▁বিয়ে",
        -8.659326553344727
      ],
      [
        "▁জয়",
        -8.65970230102539
      ],
      [
        "▁স্কুল",
        -8.662538528442383
      ],
      [
        "▁ঘরে",
        -8.662834167480469
      ],
      [
        "▁ডা",
        -8.663230895996094
      ],
      [
        "▁প্রকাশিত",
        -8.663263320922852
      ],
      [
        "S",
        -8.664056777954102
      ],
      [
        "িয়া",
        -8.664788246154785
      ],
      [
        "▁নির্বাচনে",
        -8.667089462280273
      ],
      [
        "▁অবস্থিত",
        -8.669342041015625
      ],
      [
        "▁থাকার",
        -8.670064926147461
      ],
      [
        "▁সেপ্টেম্বর",
        -8.670598983764648
      ],
      [
        "▁প্রতিনিধি",
        -8.67129135131836
      ],
      [
        "▁রাখেন",
        -8.671317100524902
      ],
      [
        "৩",
        -8.672860145568848
      ],
      [
        "▁তুমি",
        -8.673653602600098
      ],
      [
        "%",
        -8.674189567565918
      ],
      [
        "▁ক্ষমতা",
        -8.676156044006348
      ],
      [
        "▁সারা",
        -8.677077293395996
      ],
      [
        "▁আশা",
        -8.677251815795898
      ],
      [
        "▁may",
        -8.677704811096191
      ],
      [
        "▁কমিটির",
        -8.679694175720215
      ],
      [
        "ীয়",
        -8.680408477783203
      ],
      [
        "▁পূর্ব",
        -8.68161678314209
      ],
      [
        "com",
        -8.68195915222168
      ],
      [
        "▁বিশ্বের",
        -8.682212829589844
      ],
      [
        "▁সাহায্য",
        -8.682610511779785
      ],
      [
        "আ",
        -8.686213493347168
      ],
      [
        "▁মোঃ",
        -8.686355590820312
      ],
      [
        "▁মুখে",
        -8.690074920654297
      ],
      [
        "▁১৬",
        -8.691744804382324
      ],
      [
        "▁মোবাইল",
        -8.693577766418457
      ],
      [
        "▁than",
        -8.693682670593262
      ],
      [
        "▁ইতিহাস",
        -8.6939058303833
      ],
      [
        "▁সমস্ত",
        -8.694681167602539
      ],
      [
        "▁so",
        -8.695552825927734
      ],
      [
        "▁প্রতিটি",
        -8.695635795593262
      ],
      [
        "▁সাল",
        -8.69575023651123
      ],
      [
        "▁এছাড়াও",
        -8.698881149291992
      ],
      [
        "▁পেতে",
        -8.702061653137207
      ],
      [
        "▁জানিয়েছে",
        -8.703804016113281
      ],
      [
        "▁মুখ",
        -8.703838348388672
      ],
      [
        "কার",
        -8.707871437072754
      ],
      [
        "▁জনের",
        -8.708571434020996
      ],
      [
        "▁ফোন",
        -8.709228515625
      ],
      [
        "▁been",
        -8.70984172821045
      ],
      [
        "▁আহত",
        -8.712407112121582
      ],
      [
        "▁time",
        -8.713181495666504
      ],
      [
        "▁স্থান",
        -8.714323043823242
      ],
      [
        "▁প্রতিষ্ঠান",
        -8.714439392089844
      ],
      [
        "৫",
        -8.715017318725586
      ],
      [
        "▁বৃদ্ধি",
        -8.715304374694824
      ],
      [
        "▁উচিত",
        -8.716099739074707
      ],
      [
        "▁নভেম্বর",
        -8.717555046081543
      ],
      [
        "▁মেয়ে",
        -8.719927787780762
      ],
      [
        "কি",
        -8.719985961914062
      ],
      [
        "▁মধ্য",
        -8.721013069152832
      ],
      [
        "▁শহরের",
        -8.724283218383789
      ],
      [
        "i",
        -8.726432800292969
      ],
      [
        "লো",
        -8.726536750793457
      ],
      [
        "▁করেছিল",
        -8.72674560546875
      ],
      [
        "▁মহিলা",
        -8.727998733520508
      ],
      [
        "▁when",
        -8.728178977966309
      ],
      [
        "▁বিএনপির",
        -8.734288215637207
      ],
      [
        "▁ডেস্ক",
        -8.73452091217041
      ],
      [
        "▁হত্যা",
        -8.735085487365723
      ],
      [
        "▁ব্যাংক",
        -8.735416412353516
      ],
      [
        "▁ক",
        -8.737349510192871
      ],
      [
        "▁into",
        -8.739590644836426
      ],
      [
        "th",
        -8.740982055664062
      ],
      [
        "জন",
        -8.741270065307617
      ],
      [
        "মি",
        -8.742073059082031
      ],
      [
        "▁কয়েকটি",
        -8.742433547973633
      ],
      [
        "▁ভোট",
        -8.743973731994629
      ],
      [
        "▁চা",
        -8.744061470031738
      ],
      [
        "▁পরিচালনা",
        -8.746335983276367
      ],
      [
        "▁সর্বোচ্চ",
        -8.74714469909668
      ],
      [
        "▁১৩",
        -8.74721908569336
      ],
      [
        "▁পক্ষ",
        -8.747401237487793
      ],
      [
        "▁২৫",
        -8.750621795654297
      ],
      [
        "▁আসা",
        -8.751527786254883
      ],
      [
        "▁ডিসেম্বর",
        -8.752967834472656
      ],
      [
        "▁দিনে",
        -8.753358840942383
      ],
      [
        "▁তোমার",
        -8.754318237304688
      ],
      [
        "▁কাছ",
        -8.754586219787598
      ],
      [
        "▁নেন",
        -8.755132675170898
      ],
      [
        "▁people",
        -8.7557373046875
      ],
      [
        "▁ভুল",
        -8.758265495300293
      ],
      [
        "▁এলাকা",
        -8.760560035705566
      ],
      [
        "▁ছাত্র",
        -8.76113224029541
      ],
      [
        "▁উপ",
        -8.761975288391113
      ],
      [
        "▁সম্পর্ক",
        -8.763030052185059
      ],
      [
        "▁মন",
        -8.76378059387207
      ],
      [
        "▁অভিনয়",
        -8.764591217041016
      ],
      [
        "▁its",
        -8.764755249023438
      ],
      [
        "▁অবশ্যই",
        -8.765524864196777
      ],
      [
        "▁থাকলে",
        -8.765884399414062
      ],
      [
        "▁আব্দুল",
        -8.766190528869629
      ],
      [
        "িক",
        -8.76638126373291
      ],
      [
        "▁ইত্যাদি",
        -8.76877212524414
      ],
      [
        "য়া",
        -8.768880844116211
      ],
      [
        "▁C",
        -8.769405364990234
      ],
      [
        "or",
        -8.76953411102295
      ],
      [
        "▁লীগ",
        -8.76956844329834
      ],
      [
        "r",
        -8.770617485046387
      ],
      [
        "▁চান",
        -8.7719144821167
      ],
      [
        "▁জানুয়ারি",
        -8.772696495056152
      ],
      [
        "▁ঘটনার",
        -8.772821426391602
      ],
      [
        "▁them",
        -8.773490905761719
      ],
      [
        "▁শহর",
        -8.774540901184082
      ],
      [
        "▁জানায়",
        -8.776460647583008
      ],
      [
        "▁বই",
        -8.776737213134766
      ],
      [
        "▁সংস্থা",
        -8.777511596679688
      ],
      [
        "▁these",
        -8.777626037597656
      ],
      [
        "re",
        -8.777667999267578
      ],
      [
        "▁নম্বর",
        -8.778590202331543
      ],
      [
        "▁চালু",
        -8.778657913208008
      ],
      [
        "▁ভাষা",
        -8.778793334960938
      ],
      [
        "▁চট্টগ্রাম",
        -8.780648231506348
      ],
      [
        "▁অর্থাৎ",
        -8.781084060668945
      ],
      [
        "▁ছেড়ে",
        -8.781902313232422
      ],
      [
        "▁রায়",
        -8.782873153686523
      ],
      [
        "▁লক্ষ্য",
        -8.782929420471191
      ],
      [
        "▁পুরো",
        -8.783064842224121
      ],
      [
        "▁অবস্থা",
        -8.785011291503906
      ],
      [
        "▁ধারণা",
        -8.786672592163086
      ],
      [
        "▁বাস",
        -8.787370681762695
      ],
      [
        "কারী",
        -8.78814697265625
      ],
      [
        "▁out",
        -8.788813591003418
      ],
      [
        "তম",
        -8.78944206237793
      ],
      [
        "▁আগস্ট",
        -8.791537284851074
      ],
      [
        "▁up",
        -8.793277740478516
      ],
      [
        "▁যুক্ত",
        -8.793636322021484
      ],
      [
        "▁সেবা",
        -8.796544075012207
      ],
      [
        "▁হলেন",
        -8.799071311950684
      ],
      [
        "▁বাজার",
        -8.800086975097656
      ],
      [
        "▁ম্যাচ",
        -8.80036449432373
      ],
      [
        "▁মুক্তি",
        -8.801852226257324
      ],
      [
        "▁জানানো",
        -8.802815437316895
      ],
      [
        "▁নির্বাহী",
        -8.803167343139648
      ],
      [
        "▁লোক",
        -8.803571701049805
      ],
      [
        "▁আছেন",
        -8.804244041442871
      ],
      [
        "▁অর্জন",
        -8.806180953979492
      ],
      [
        ").",
        -8.806830406188965
      ],
      [
        "ঁ",
        -8.807090759277344
      ],
      [
        "▁সবার",
        -8.808331489562988
      ],
      [
        "▁নিজ",
        -8.810700416564941
      ],
      [
        "▁পরিকল্পনা",
        -8.813526153564453
      ],
      [
        "▁বিভাগ",
        -8.814736366271973
      ],
      [
        "▁তালিকা",
        -8.814756393432617
      ],
      [
        "▁some",
        -8.814863204956055
      ],
      [
        "▁করছি",
        -8.816394805908203
      ],
      [
        "▁do",
        -8.816849708557129
      ],
      [
        "▁সাড়ে",
        -8.817228317260742
      ],
      [
        "▁বল",
        -8.817432403564453
      ],
      [
        "▁৫০",
        -8.817626953125
      ],
      [
        "▁ফল",
        -8.820050239562988
      ],
      [
        "▁এত",
        -8.820464134216309
      ],
      [
        "▁পরিমাণ",
        -8.820915222167969
      ],
      [
        "▁এখনও",
        -8.821170806884766
      ],
      [
        "▁our",
        -8.822297096252441
      ],
      [
        "িত",
        -8.822816848754883
      ],
      [
        "▁re",
        -8.824481010437012
      ],
      [
        "▁এস",
        -8.824869155883789
      ],
      [
        "▁অভিযান",
        -8.826621055603027
      ],
      [
        "▁অধ্যাপক",
        -8.826748847961426
      ],
      [
        "A",
        -8.826904296875
      ],
      [
        "▁সুবিধা",
        -8.829606056213379
      ],
      [
        "▁তৃতীয়",
        -8.830946922302246
      ],
      [
        "▁B",
        -8.831624984741211
      ],
      [
        "▁গান",
        -8.833170890808105
      ],
      [
        "য়ের",
        -8.835134506225586
      ],
      [
        "▁জনপ্রিয়",
        -8.83519172668457
      ],
      [
        "▁ধরা",
        -8.838310241699219
      ],
      [
        "গুলির",
        -8.841315269470215
      ],
      [
        "▁নামের",
        -8.842096328735352
      ],
      [
        "▁প্র",
        -8.842979431152344
      ],
      [
        "▁আসলে",
        -8.843650817871094
      ],
      [
        "▁আয়",
        -8.8438138961792
      ],
      [
        "▁had",
        -8.844756126403809
      ],
      [
        "▁ম্যাচে",
        -8.846287727355957
      ],
      [
        "▁there",
        -8.848501205444336
      ],
      [
        "▁কাজের",
        -8.84924030303955
      ],
      [
        "▁নিরাপত্তা",
        -8.849321365356445
      ],
      [
        "▁মুসলিম",
        -8.850046157836914
      ],
      [
        "▁পারি",
        -8.850666046142578
      ],
      [
        "▁কার্যক্রম",
        -8.851628303527832
      ],
      [
        "▁নেয়",
        -8.852117538452148
      ],
      [
        "৪",
        -8.852170944213867
      ],
      [
        "গুলোর",
        -8.852843284606934
      ],
      [
        "▁গতকাল",
        -8.852852821350098
      ],
      [
        "চ",
        -8.853754997253418
      ],
      [
        "▁আয়োজন",
        -8.854808807373047
      ],
      [
        "▁অফিসার",
        -8.855001449584961
      ],
      [
        "▁নেয়া",
        -8.85546875
      ],
      [
        "▁নিজেকে",
        -8.857660293579102
      ],
      [
        "▁হাসিনা",
        -8.858321189880371
      ],
      [
        "▁কিভাবে",
        -8.858327865600586
      ],
      [
        "ভ",
        -8.858378410339355
      ],
      [
        "▁পথ",
        -8.863456726074219
      ],
      [
        "▁পথে",
        -8.863544464111328
      ],
      [
        "▁নির্দেশ",
        -8.864874839782715
      ],
      [
        "▁ম",
        -8.865560531616211
      ],
      [
        "▁ভূমিকা",
        -8.866729736328125
      ],
      [
        "▁সিলেট",
        -8.867632865905762
      ],
      [
        "▁আই",
        -8.867890357971191
      ],
      [
        "রে",
        -8.868170738220215
      ],
      [
        "▁তাঁদের",
        -8.870305061340332
      ],
      [
        "▁খুবই",
        -8.87048625946045
      ],
      [
        "▁প্রার্থী",
        -8.87157917022705
      ],
      [
        "▁বহু",
        -8.872063636779785
      ],
      [
        "▁দ্য",
        -8.873053550720215
      ],
      [
        "▁সুন্দর",
        -8.87348747253418
      ],
      [
        "▁খেলা",
        -8.874429702758789
      ],
      [
        "ation",
        -8.876733779907227
      ],
      [
        "▁আহমদ",
        -8.877699851989746
      ],
      [
        "▁সময়ের",
        -8.878396987915039
      ],
      [
        "▁বেড়ে",
        -8.879118919372559
      ],
      [
        "▁সেরা",
        -8.880292892456055
      ],
      [
        "▁নির্বাচিত",
        -8.88109016418457
      ],
      [
        "▁মেডিকেল",
        -8.881162643432617
      ],
      [
        "ডি",
        -8.88172721862793
      ],
      [
        "▁করেছি",
        -8.882133483886719
      ],
      [
        "▁জল",
        -8.882148742675781
      ],
      [
        "▁কত",
        -8.882282257080078
      ],
      [
        "ির",
        -8.882396697998047
      ],
      [
        "▁স্থানে",
        -8.883308410644531
      ],
      [
        "▁থানায়",
        -8.88403034210205
      ],
      [
        "▁টাকার",
        -8.885223388671875
      ],
      [
        "▁২০১৮",
        -8.88577938079834
      ],
      [
        "▁গ্রেফতার",
        -8.888123512268066
      ],
      [
        "▁পাবেন",
        -8.889139175415039
      ],
      [
        "সে",
        -8.89012336730957
      ],
      [
        "▁বাজারে",
        -8.894848823547363
      ],
      [
        "▁গ্রাম",
        -8.895724296569824
      ],
      [
        "▁পর্যায়ে",
        -8.895967483520508
      ],
      [
        "▁অধিকার",
        -8.896129608154297
      ],
      [
        "▁ফেলে",
        -8.896479606628418
      ],
      [
        "▁use",
        -8.896735191345215
      ],
      [
        "]",
        -8.89692497253418
      ],
      [
        "▁আগের",
        -8.900313377380371
      ],
      [
        "▁most",
        -8.901080131530762
      ],
      [
        "▁সহায়তা",
        -8.901233673095703
      ],
      [
        "▁সভায়",
        -8.901884078979492
      ],
      [
        "▁বেগম",
        -8.90282917022705
      ],
      [
        "▁দেখুন",
        -8.90347671508789
      ],
      [
        "▁would",
        -8.903529167175293
      ],
      [
        "▁আদালত",
        -8.903780937194824
      ],
      [
        "o",
        -8.904130935668945
      ],
      [
        "m",
        -8.904962539672852
      ],
      [
        "▁গল্প",
        -8.908524513244629
      ],
      [
        "▁জীবনের",
        -8.9095458984375
      ],
      [
        "▁তদন্ত",
        -8.90995979309082
      ],
      [
        "▁if",
        -8.910063743591309
      ],
      [
        "▁এখনো",
        -8.911539077758789
      ],
      [
        "▁আগেই",
        -8.912727355957031
      ],
      [
        "▁P",
        -8.913471221923828
      ],
      [
        "্য",
        -8.914895057678223
      ],
      [
        "▁সূত্র",
        -8.915140151977539
      ],
      [
        "▁পরিস্থিতি",
        -8.915289878845215
      ],
      [
        "▁মিয়া",
        -8.91759204864502
      ],
      [
        "▁such",
        -8.917619705200195
      ],
      [
        "▁সংগ্রহ",
        -8.918015480041504
      ],
      [
        "▁পুরুষ",
        -8.918314933776855
      ],
      [
        "▁মেনে",
        -8.918432235717773
      ],
      [
        "▁সুপার",
        -8.918758392333984
      ],
      [
        "▁হয়তো",
        -8.920245170593262
      ],
      [
        "▁নিয়মিত",
        -8.921113967895508
      ],
      [
        "▁প্রভাব",
        -8.921589851379395
      ],
      [
        "▁বুঝতে",
        -8.921825408935547
      ],
      [
        "▁অভিনেত্রী",
        -8.922735214233398
      ],
      [
        "▁নির্মাণ",
        -8.922914505004883
      ],
      [
        "▁ছিলো",
        -8.923272132873535
      ],
      [
        "▁কর্তৃপক্ষ",
        -8.923626899719238
      ],
      [
        "▁ফেব্রুয়ারি",
        -8.923983573913574
      ],
      [
        "▁অনেকেই",
        -8.926584243774414
      ],
      [
        "▁রাজ্য",
        -8.926681518554688
      ],
      [
        "▁বঙ্গবন্ধু",
        -8.926820755004883
      ],
      [
        "▁পাওয়ার",
        -8.927029609680176
      ],
      [
        "পা",
        -8.927117347717285
      ],
      [
        "▁মাঠে",
        -8.930793762207031
      ],
      [
        "▁জায়গা",
        -8.930970191955566
      ],
      [
        "▁প্রেসিডেন্ট",
        -8.93106746673584
      ],
      [
        "▁ঐ",
        -8.93152904510498
      ],
      [
        "▁সাংবাদিক",
        -8.931663513183594
      ],
      [
        "জা",
        -8.931976318359375
      ],
      [
        "অ",
        -8.932085037231445
      ],
      [
        "▁মন্ত্রী",
        -8.933075904846191
      ],
      [
        "▁মাসের",
        -8.933884620666504
      ],
      [
        "▁মৃত্যুর",
        -8.933965682983398
      ],
      [
        "▁দিক",
        -8.934844970703125
      ],
      [
        "▁E",
        -8.93655014038086
      ],
      [
        "▁আসছে",
        -8.937223434448242
      ],
      [
        "▁over",
        -8.937999725341797
      ],
      [
        "▁পরিষদের",
        -8.93817138671875
      ],
      [
        "▁গাড়ি",
        -8.938969612121582
      ],
      [
        "▁তাতে",
        -8.941222190856934
      ],
      [
        "ুর",
        -8.941259384155273
      ],
      [
        "ers",
        -8.943480491638184
      ],
      [
        "▁সড়ক",
        -8.943564414978027
      ],
      [
        "c",
        -8.944331169128418
      ],
      [
        "▁পারবে",
        -8.944698333740234
      ],
      [
        "▁চালিয়ে",
        -8.944968223571777
      ],
      [
        "তো",
        -8.945170402526855
      ],
      [
        "▁সচিব",
        -8.946436882019043
      ],
      [
        "▁এসময়",
        -8.946515083312988
      ],
      [
        "▁জায়গায়",
        -8.949061393737793
      ],
      [
        "▁নিন",
        -8.949164390563965
      ],
      [
        "▁বিপক্ষে",
        -8.949335098266602
      ],
      [
        "▁আবু",
        -8.950183868408203
      ],
      [
        "▁দরকার",
        -8.950246810913086
      ],
      [
        "▁সম্প্রতি",
        -8.950393676757812
      ],
      [
        "▁জানিয়ে",
        -8.950843811035156
      ],
      [
        "▁জি",
        -8.951111793518066
      ],
      [
        "▁—",
        -8.951891899108887
      ],
      [
        "▁দীর্ঘ",
        -8.952688217163086
      ],
      [
        "নে",
        -8.952727317810059
      ],
      [
        "▁শিকার",
        -8.953705787658691
      ],
      [
        "▁তিনটি",
        -8.954150199890137
      ],
      [
        "▁1",
        -8.955545425415039
      ],
      [
        "▁what",
        -8.957310676574707
      ],
      [
        "▁আসতে",
        -8.957579612731934
      ],
      [
        "▁ফুটবল",
        -8.95776653289795
      ],
      [
        "▁চোখ",
        -8.959921836853027
      ],
      [
        "▁চায়",
        -8.960773468017578
      ],
      [
        "▁কৃষি",
        -8.961323738098145
      ],
      [
        "▁শেয়ার",
        -8.962178230285645
      ],
      [
        "নো",
        -8.964367866516113
      ],
      [
        "তি",
        -8.96512222290039
      ],
      [
        "▁ছড়িয়ে",
        -8.966826438903809
      ],
      [
        "▁২১",
        -8.968781471252441
      ],
      [
        "▁উইকেট",
        -8.969077110290527
      ],
      [
        "▁কা",
        -8.96965503692627
      ],
      [
        "▁সঠিক",
        -8.971936225891113
      ],
      [
        "▁অফ",
        -8.97274112701416
      ],
      [
        "▁ক্রিকেটার",
        -8.973254203796387
      ],
      [
        "▁হোক",
        -8.97451400756836
      ],
      [
        "▁পণ্য",
        -8.974994659423828
      ],
      [
        "▁অনলাইন",
        -8.975662231445312
      ],
      [
        "▁how",
        -8.975910186767578
      ],
      [
        "▁তাঁকে",
        -8.975972175598145
      ],
      [
        "…",
        -8.97687816619873
      ],
      [
        "▁এমনকি",
        -8.976936340332031
      ],
      [
        "▁মূলত",
        -8.978386878967285
      ],
      [
        "▁ইন",
        -8.9786958694458
      ],
      [
        "▁used",
        -8.978727340698242
      ],
      [
        "▁প্রথমে",
        -8.97947883605957
      ],
      [
        "▁রোগ",
        -8.980704307556152
      ],
      [
        "▁শিক্ষার্থী",
        -8.984329223632812
      ],
      [
        "▁only",
        -8.985434532165527
      ],
      [
        "▁লক্ষ",
        -8.985570907592773
      ],
      [
        "▁কখনো",
        -8.986066818237305
      ],
      [
        "▁প্রবেশ",
        -8.986769676208496
      ],
      [
        "▁no",
        -8.98695182800293
      ],
      [
        "▁গবেষণা",
        -8.987534523010254
      ],
      [
        "▁ব্যবসা",
        -8.988389015197754
      ],
      [
        "▁সহজ",
        -8.989469528198242
      ],
      [
        "▁ভাগ",
        -8.990864753723145
      ],
      [
        "▁থানা",
        -8.991554260253906
      ],
      [
        "▁১৯",
        -8.993020057678223
      ],
      [
        "▁গ্রামে",
        -8.994876861572266
      ],
      [
        "▁কিনা",
        -8.995549201965332
      ],
      [
        "▁নিউজ",
        -8.99610710144043
      ],
      [
        "▁অতিথি",
        -8.996188163757324
      ],
      [
        "▁পরবর্তী",
        -8.997516632080078
      ],
      [
        "g",
        -8.997674942016602
      ],
      [
        "▁লাল",
        -8.999359130859375
      ],
      [
        "▁জমা",
        -9.004037857055664
      ],
      [
        "▁নাই",
        -9.006795883178711
      ],
      [
        "ion",
        -9.00853157043457
      ],
      [
        "▁বয়স",
        -9.00853157043457
      ],
      [
        "▁আলাদা",
        -9.009005546569824
      ],
      [
        "▁many",
        -9.009319305419922
      ],
      [
        "▁মামলার",
        -9.009902000427246
      ],
      [
        "ভি",
        -9.010065078735352
      ],
      [
        "▁first",
        -9.012989044189451
      ],
      [
        "▁রাখার",
        -9.013875961303713
      ],
      [
        "▁চাইলে",
        -9.014409065246582
      ],
      [
        "▁কুমার",
        -9.014934539794922
      ],
      [
        "▁রি",
        -9.015066146850586
      ],
      [
        "▁টেস্ট",
        -9.01588249206543
      ],
      [
        "▁প্রতিষ্ঠিত",
        -9.016319274902344
      ],
      [
        "▁সা",
        -9.016681671142578
      ],
      [
        "▁শক্তি",
        -9.016765594482422
      ],
      [
        "উ",
        -9.016843795776367
      ],
      [
        "▁রয়েছেন",
        -9.01791763305664
      ],
      [
        "▁কমিটি",
        -9.018393516540527
      ],
      [
        "▁সন্তান",
        -9.01920223236084
      ],
      [
        "▁খারাপ",
        -9.020045280456545
      ],
      [
        "▁বহিঃসংযোগ",
        -9.024250984191896
      ],
      [
        "▁স্বামী",
        -9.024772644042969
      ],
      [
        "▁মতে",
        -9.02539348602295
      ],
      [
        "পি",
        -9.02568244934082
      ],
      [
        "▁প্রতিদিন",
        -9.02626609802246
      ],
      [
        "▁পরামর্শ",
        -9.027379989624023
      ],
      [
        "▁সম্পূর্ণ",
        -9.028040885925291
      ],
      [
        "▁D",
        -9.029147148132324
      ],
      [
        "▁অ্যান্ড",
        -9.031112670898438
      ],
      [
        "নের",
        -9.031392097473145
      ],
      [
        "▁new",
        -9.033799171447754
      ],
      [
        "▁নদী",
        -9.035099983215332
      ],
      [
        "▁চিন্তা",
        -9.035243034362791
      ],
      [
        "▁২০১৯",
        -9.035370826721191
      ],
      [
        "▁শাহ",
        -9.03623867034912
      ],
      [
        "▁জীবনে",
        -9.037298202514648
      ],
      [
        "▁বিদ্যালয়",
        -9.037443161010742
      ],
      [
        "▁হা",
        -9.039697647094728
      ],
      [
        "▁হওয়ায়",
        -9.03993797302246
      ],
      [
        "▁খেলোয়াড়",
        -9.040067672729492
      ],
      [
        "▁নাকি",
        -9.040685653686523
      ],
      [
        "▁সাধারণত",
        -9.04073429107666
      ],
      [
        "▁মাছ",
        -9.04100513458252
      ],
      [
        "▁গঠন",
        -9.041501998901367
      ],
      [
        "▁কু",
        -9.041544914245604
      ],
      [
        "▁স্বাধীনতা",
        -9.041962623596191
      ],
      [
        "▁like",
        -9.04319667816162
      ],
      [
        "▁বাড়ির",
        -9.043747901916504
      ],
      [
        "▁হিন্দু",
        -9.043882369995115
      ],
      [
        "▁পাঠানো",
        -9.04434299468994
      ],
      [
        "▁শব্দ",
        -9.045233726501465
      ],
      [
        "▁খরচ",
        -9.045717239379885
      ],
      [
        "▁খাদ্য",
        -9.047550201416016
      ],
      [
        "▁সিটি",
        -9.050008773803713
      ],
      [
        "▁দূর",
        -9.052749633789062
      ],
      [
        "▁২০২০",
        -9.053299903869627
      ],
      [
        "▁প্রযুক্তি",
        -9.05433750152588
      ],
      [
        "▁রোববার",
        -9.054641723632812
      ],
      [
        "▁কিছুটা",
        -9.054769515991213
      ],
      [
        "▁অন্যদিকে",
        -9.055673599243164
      ],
      [
        "▁হারিয়ে",
        -9.05580234527588
      ],
      [
        "▁পোস্ট",
        -9.058417320251465
      ],
      [
        "▁পরিচয়",
        -9.058700561523438
      ],
      [
        "▁মাথায়",
        -9.060888290405272
      ],
      [
        "▁আদালতে",
        -9.061086654663086
      ],
      [
        "▁ভারতে",
        -9.061860084533691
      ],
      [
        "ছি",
        -9.061918258666992
      ],
      [
        "▁স্বাভাবিক",
        -9.06213665008545
      ],
      [
        "ড়",
        -9.065285682678224
      ],
      [
        "ic",
        -9.067704200744627
      ],
      [
        "▁একবার",
        -9.069178581237791
      ],
      [
        "▁পি",
        -9.06974983215332
      ],
      [
        "▁যেকোনো",
        -9.07036304473877
      ],
      [
        "▁একাধিক",
        -9.072247505187988
      ],
      [
        "▁সহকারী",
        -9.072786331176758
      ],
      [
        "▁শিল্প",
        -9.072829246520996
      ],
      [
        "▁পড়তে",
        -9.07348346710205
      ],
      [
        "▁মায়ের",
        -9.073731422424316
      ],
      [
        "▁ফেসবুক",
        -9.07439422607422
      ],
      [
        "▁মানে",
        -9.074810028076172
      ],
      [
        "▁G",
        -9.075624465942385
      ],
      [
        "▁লেখক",
        -9.07563018798828
      ],
      [
        "▁কেবল",
        -9.075925827026367
      ],
      [
        "হা",
        -9.076775550842283
      ],
      [
        "▁করলেন",
        -9.07822608947754
      ],
      [
        "▁ঘর",
        -9.078566551208496
      ],
      [
        "▁নেমে",
        -9.079408645629885
      ],
      [
        "▁২২",
        -9.080636978149414
      ],
      [
        "▁two",
        -9.081374168395996
      ],
      [
        "▁রকম",
        -9.08217716217041
      ],
      [
        "▁গেছেন",
        -9.083135604858398
      ],
      [
        "টার",
        -9.083203315734863
      ],
      [
        "৬",
        -9.085413932800291
      ],
      [
        "▁ঢাকার",
        -9.087647438049316
      ],
      [
        "▁পরিষদ",
        -9.088777542114258
      ],
      [
        "▁[",
        -9.090694427490234
      ],
      [
        "ছেন",
        -9.090911865234377
      ],
      [
        "▁হতো",
        -9.091388702392578
      ],
      [
        "▁অনুরোধ",
        -9.092265129089355
      ],
      [
        "▁নিয়ন্ত্রণ",
        -9.093156814575195
      ],
      [
        "▁পাকিস্তান",
        -9.093524932861328
      ],
      [
        "▁নিয়োগ",
        -9.093674659729004
      ],
      [
        "েই",
        -9.094341278076172
      ],
      [
        "▁বাকি",
        -9.096431732177734
      ],
      [
        "▁তাঁরা",
        -9.096603393554688
      ],
      [
        "▁পদে",
        -9.09684944152832
      ],
      [
        "▁নিচে",
        -9.097367286682127
      ],
      [
        "▁নিয়ম",
        -9.098225593566896
      ],
      [
        "▁হামলা",
        -9.098819732666016
      ],
      [
        "▁রেকর্ড",
        -9.100264549255373
      ],
      [
        "▁পরিবেশ",
        -9.103055953979492
      ],
      [
        "▁মৃত",
        -9.104068756103516
      ],
      [
        "▁M",
        -9.104434967041016
      ],
      [
        "মূলক",
        -9.10627555847168
      ],
      [
        "▁সম্পন্ন",
        -9.1085786819458
      ],
      [
        "b",
        -9.108901977539062
      ],
      [
        "▁ব্যাপক",
        -9.10909366607666
      ],
      [
        "▁মডেল",
        -9.109439849853516
      ],
      [
        "▁পড়েছে",
        -9.109955787658691
      ],
      [
        "▁বিষয়ক",
        -9.111605644226074
      ],
      [
        "▁দেয়ার",
        -9.11352252960205
      ],
      [
        "▁বিমান",
        -9.11385726928711
      ],
      [
        "খ",
        -9.113988876342772
      ],
      [
        "▁নির্দিষ্ট",
        -9.11415195465088
      ],
      [
        "▁যুদ্ধ",
        -9.114202499389648
      ],
      [
        "▁খুঁজে",
        -9.114505767822266
      ],
      [
        "▁ধীরে",
        -9.114529609680176
      ],
      [
        "▁দুপুরে",
        -9.114766120910645
      ],
      [
        "▁সরাসরি",
        -9.11709213256836
      ],
      [
        "▁সৌদি",
        -9.117155075073242
      ],
      [
        "২০",
        -9.117548942565918
      ],
      [
        "▁অত্যন্ত",
        -9.117616653442385
      ],
      [
        "▁de",
        -9.11818790435791
      ],
      [
        "▁আসার",
        -9.1187105178833
      ],
      [
        "▁যিনি",
        -9.119610786437988
      ],
      [
        "▁বিচার",
        -9.12026023864746
      ],
      [
        "▁পার",
        -9.120294570922852
      ],
      [
        "▁গোল",
        -9.121026992797852
      ],
      [
        "▁প্রয়োজনীয়",
        -9.121420860290527
      ],
      [
        "▁সুস্থ",
        -9.121603965759276
      ],
      [
        "▁সূত্রে",
        -9.122352600097656
      ],
      [
        "▁Leave",
        -9.1227445602417
      ],
      [
        "▁পড়া",
        -9.123857498168944
      ],
      [
        "আর",
        -9.125861167907717
      ],
      [
        "▁আপনাদের",
        -9.126413345336914
      ],
      [
        "▁ডলার",
        -9.127501487731934
      ],
      [
        "▁মেয়র",
        -9.12842082977295
      ],
      [
        "▁ওঠে",
        -9.128990173339844
      ],
      [
        "▁রাজ্যের",
        -9.129006385803224
      ],
      [
        "▁কীভাবে",
        -9.130678176879885
      ],
      [
        "ছ",
        -9.132597923278809
      ],
      [
        "টিতে",
        -9.132680892944336
      ],
      [
        "▁কমে",
        -9.133191108703612
      ],
      [
        "▁any",
        -9.135973930358888
      ],
      [
        "▁পছন্দ",
        -9.136066436767578
      ],
      [
        "▁মাথা",
        -9.137024879455566
      ],
      [
        "▁ব্রিটিশ",
        -9.138745307922363
      ],
      [
        "▁আসবে",
        -9.14002799987793
      ],
      [
        "▁লাগে",
        -9.140259742736816
      ],
      [
        "▁এদের",
        -9.141478538513184
      ],
      [
        "▁R",
        -9.141843795776367
      ],
      [
        "▁অফিস",
        -9.14372730255127
      ],
      [
        "▁উ",
        -9.143735885620115
      ],
      [
        "▁কর",
        -9.143775939941406
      ],
      [
        "▁বছরে",
        -9.144755363464355
      ],
      [
        "▁ধরণের",
        -9.144946098327637
      ],
      [
        "▁নিয়েছে",
        -9.146439552307127
      ],
      [
        "▁পরীক্ষার",
        -9.14700984954834
      ],
      [
        "▁মামলায়",
        -9.148096084594728
      ],
      [
        "▁সংগঠন",
        -9.148330688476562
      ],
      [
        "B",
        -9.148483276367188
      ],
      [
        "▁ছয়",
        -9.149259567260742
      ],
      [
        "▁জেনে",
        -9.14990234375
      ],
      [
        "▁বলল",
        -9.149907112121582
      ],
      [
        "▁খালেদা",
        -9.150188446044922
      ],
      [
        "on",
        -9.150324821472168
      ],
      [
        "▁ব্যক্তিগত",
        -9.150641441345217
      ],
      [
        "▁should",
        -9.150712013244627
      ],
      [
        "▁সাত",
        -9.150851249694824
      ],
      [
        "▁work",
        -9.153153419494627
      ],
      [
        "▁২৩",
        -9.153839111328123
      ],
      [
        "▁water",
        -9.154443740844728
      ],
      [
        "মান",
        -9.155359268188477
      ],
      [
        "l",
        -9.1556978225708
      ],
      [
        "গা",
        -9.156713485717772
      ],
      [
        "▁নেওয়ার",
        -9.15675926208496
      ],
      [
        "▁থাকায়",
        -9.157670974731444
      ],
      [
        "▁মান",
        -9.158158302307127
      ],
      [
        "▁F",
        -9.158363342285156
      ],
      [
        "▁2",
        -9.15851593017578
      ],
      [
        "▁মালিক",
        -9.158611297607422
      ],
      [
        "▁বন্ধু",
        -9.158616065979004
      ],
      [
        "▁টা",
        -9.159749984741213
      ],
      [
        "▁সংশ্লিষ্ট",
        -9.160526275634766
      ],
      [
        "▁আন্দোলন",
        -9.160892486572266
      ],
      [
        "▁কোম্পানি",
        -9.161477088928224
      ],
      [
        "▁উপায়",
        -9.161506652832031
      ],
      [
        "▁সম্ভাবনা",
        -9.16151523590088
      ],
      [
        "৭",
        -9.162400245666504
      ],
      [
        "▁আসেন",
        -9.162647247314451
      ],
      [
        "▁সেটি",
        -9.163241386413574
      ],
      [
        "▁জেনারেল",
        -9.164304733276367
      ],
      [
        "▁নেতৃত্বে",
        -9.167012214660645
      ],
      [
        "▁আল্লাহ",
        -9.168752670288086
      ],
      [
        "▁well",
        -9.171042442321776
      ],
      [
        "▁কঠিন",
        -9.171464920043944
      ],
      [
        "▁অনুষ্ঠান",
        -9.17161750793457
      ],
      [
        "▁উপলক্ষে",
        -9.176257133483888
      ],
      [
        "▁স্বপ্ন",
        -9.176321983337402
      ],
      [
        "▁years",
        -9.176651000976562
      ],
      [
        "ণ",
        -9.176835060119627
      ],
      [
        "▁শিক্ষার্থীদের",
        -9.17729377746582
      ],
      [
        "▁অনেকে",
        -9.17788028717041
      ],
      [
        "▁সভা",
        -9.17851734161377
      ],
      [
        "আমি",
        -9.178725242614746
      ],
      [
        "▁ব্যবহৃত",
        -9.179693222045898
      ],
      [
        "▁একমাত্র",
        -9.180224418640137
      ],
      [
        "▁প্রমাণ",
        -9.18060302734375
      ],
      [
        "▁বরং",
        -9.181336402893066
      ],
      [
        "▁একে",
        -9.181424140930176
      ],
      [
        "▁মানুষকে",
        -9.18149185180664
      ],
      [
        "▁৪০",
        -9.1825590133667
      ],
      [
        "▁through",
        -9.18357753753662
      ],
      [
        "▁মু",
        -9.183931350708008
      ],
      [
        "▁যুক্তরাষ্ট্রের",
        -9.184165000915527
      ],
      [
        "▁কেমন",
        -9.185868263244627
      ],
      [
        "▁গিয়েছে",
        -9.187056541442873
      ],
      [
        "▁২৬",
        -9.187135696411133
      ],
      [
        "▁আনা",
        -9.188547134399414
      ],
      [
        "▁জড়িত",
        -9.18905544281006
      ],
      [
        "▁বললেন",
        -9.193949699401855
      ],
      [
        "▁3",
        -9.194210052490234
      ],
      [
        "p",
        -9.194849014282228
      ],
      [
        "াল",
        -9.195220947265623
      ],
      [
        "▁হাসপাতাল",
        -9.195273399353027
      ],
      [
        "▁প্রকল্প",
        -9.195798873901367
      ],
      [
        "▁পাকিস্তানের",
        -9.196002960205078
      ],
      [
        "▁করতেন",
        -9.196491241455078
      ],
      [
        "কো",
        -9.196521759033203
      ],
      [
        "▁উৎপাদন",
        -9.197354316711426
      ],
      [
        "▁?",
        -9.19768238067627
      ],
      [
        "▁সমাজ",
        -9.198037147521973
      ],
      [
        "▁পশ্চিম",
        -9.198391914367676
      ],
      [
        "থ",
        -9.199893951416016
      ],
      [
        "▁পেয়েছে",
        -9.20016098022461
      ],
      [
        "▁অন্তত",
        -9.200411796569824
      ],
      [
        "মে",
        -9.200555801391602
      ],
      [
        "▁রাজা",
        -9.200963973999023
      ],
      [
        "▁কিলোমিটার",
        -9.202228546142578
      ],
      [
        "▁বিজ্ঞান",
        -9.20228672027588
      ],
      [
        "C",
        -9.202598571777344
      ],
      [
        "▁নিজস্ব",
        -9.20265007019043
      ],
      [
        "▁খেতে",
        -9.20420742034912
      ],
      [
        "▁Reply",
        -9.205446243286133
      ],
      [
        "▁জমি",
        -9.209847450256348
      ],
      [
        "▁পদ্ধতি",
        -9.21156120300293
      ],
      [
        "▁অভিনেতা",
        -9.212260246276855
      ],
      [
        "▁বিতরণ",
        -9.21385669708252
      ],
      [
        "▁দেবে",
        -9.214007377624512
      ],
      [
        "পাড়া",
        -9.214375495910645
      ],
      [
        "▁T",
        -9.21479606628418
      ],
      [
        "us",
        -9.21677589416504
      ],
      [
        "▁চাপ",
        -9.217596054077148
      ],
      [
        "▁ফুল",
        -9.21799087524414
      ],
      [
        "▁রক্ষা",
        -9.219972610473633
      ],
      [
        "▁বিজয়ী",
        -9.221761703491213
      ],
      [
        "▁প্রচার",
        -9.222186088562012
      ],
      [
        "▁রিপোর্ট",
        -9.223040580749512
      ],
      [
        "▁মিনিট",
        -9.223543167114258
      ],
      [
        "প্র",
        -9.22361660003662
      ],
      [
        "▁চোখে",
        -9.225286483764648
      ],
      [
        "▁২৮",
        -9.226134300231934
      ],
      [
        "▁আবুল",
        -9.228020668029783
      ],
      [
        "▁তেল",
        -9.229732513427734
      ],
      [
        "▁যাদের",
        -9.229756355285645
      ],
      [
        "▁খুলে",
        -9.231684684753418
      ],
      [
        "▁শহরে",
        -9.23240852355957
      ],
      [
        "▁make",
        -9.23267936706543
      ],
      [
        "▁between",
        -9.23313331604004
      ],
      [
        "▁দিবস",
        -9.234457969665527
      ],
      [
        "▁রে",
        -9.235194206237791
      ],
      [
        "▁ক্লিক",
        -9.235429763793944
      ],
      [
        "▁মাদক",
        -9.236932754516602
      ],
      [
        "▁If",
        -9.237597465515137
      ],
      [
        "▁বিশাল",
        -9.237995147705078
      ],
      [
        "▁আবদুল",
        -9.238001823425291
      ],
      [
        "দার",
        -9.239471435546877
      ],
      [
        "▁কবি",
        -9.239686012268066
      ],
      [
        "▁পৃথিবীর",
        -9.24130153656006
      ],
      [
        "▁কোথায়",
        -9.241619110107422
      ],
      [
        "▁পড়ুন",
        -9.243867874145508
      ],
      [
        "▁অবশ্য",
        -9.24440860748291
      ],
      [
        "▁হঠাৎ",
        -9.245288848876951
      ],
      [
        "ড়া",
        -9.2454195022583
      ],
      [
        "▁বাসায়",
        -9.246131896972656
      ],
      [
        "সের",
        -9.246548652648926
      ],
      [
        "▁ভিত্তিতে",
        -9.247466087341309
      ],
      [
        "▁বিয়ের",
        -9.248011589050291
      ],
      [
        "▁For",
        -9.24832534790039
      ],
      [
        "▁উঠেছে",
        -9.249242782592772
      ],
      [
        "▁উল্লেখ্য",
        -9.24958324432373
      ],
      [
        "f",
        -9.249631881713867
      ],
      [
        "▁ওর",
        -9.249985694885254
      ],
      [
        "▁যায়নি",
        -9.2512788772583
      ],
      [
        "▁অংশগ্রহণ",
        -9.251924514770508
      ],
      [
        "▁পরবর্তীতে",
        -9.25350856781006
      ],
      [
        "▁উদ্যোগ",
        -9.254679679870604
      ],
      [
        "▁could",
        -9.254908561706545
      ],
      [
        "▁নদীর",
        -9.255084991455078
      ],
      [
        "▁মূল্য",
        -9.255353927612305
      ],
      [
        "▁H",
        -9.256043434143066
      ],
      [
        "▁চলতি",
        -9.25622272491455
      ],
      [
        "▁বিদ্যুৎ",
        -9.256555557250977
      ],
      [
        "▁কিছুই",
        -9.257362365722656
      ],
      [
        "দি",
        -9.25741481781006
      ],
      [
        "▁থাকলেও",
        -9.25743007659912
      ],
      [
        "য়ার",
        -9.258610725402832
      ],
      [
        "▁খাওয়া",
        -9.25945281982422
      ],
      [
        "▁জরুরি",
        -9.260123252868652
      ],
      [
        "▁২৭",
        -9.260577201843262
      ],
      [
        "▁উন্নত",
        -9.260931015014648
      ],
      [
        "গণ",
        -9.261614799499512
      ],
      [
        "an",
        -9.261863708496094
      ],
      [
        "▁আহ্বান",
        -9.26238250732422
      ],
      [
        "▁দলে",
        -9.262941360473633
      ],
      [
        "▁ভয়",
        -9.263157844543455
      ],
      [
        "▁পরিণত",
        -9.26413345336914
      ],
      [
        "বো",
        -9.26416015625
      ],
      [
        "▁দূরে",
        -9.264496803283691
      ],
      [
        "▁বিভাগে",
        -9.264976501464844
      ],
      [
        "D",
        -9.265314102172852
      ],
      [
        "▁ওয়েবসাইট",
        -9.26546573638916
      ],
      [
        "▁জানি",
        -9.266108512878418
      ],
      [
        "▁প্রচুর",
        -9.266158103942873
      ],
      [
        "▁শ্রমিক",
        -9.268311500549316
      ],
      [
        "গুলোতে",
        -9.268961906433104
      ],
      [
        "▁এভাবে",
        -9.269309997558594
      ],
      [
        "▁পিতা",
        -9.270828247070312
      ],
      [
        "▁রাজধানীর",
        -9.27120590209961
      ],
      [
        "_",
        -9.272098541259766
      ],
      [
        "▁সত্য",
        -9.272421836853027
      ],
      [
        "▁18",
        -9.272459030151367
      ],
      [
        "▁ডিজিটাল",
        -9.274072647094728
      ],
      [
        "স্ট",
        -9.275327682495115
      ],
      [
        "▁দেব",
        -9.27582550048828
      ],
      [
        "▁শহীদ",
        -9.27638053894043
      ],
      [
        "তেই",
        -9.276947975158691
      ],
      [
        "▁দশমিক",
        -9.277884483337402
      ],
      [
        "▁খেলার",
        -9.2781982421875
      ],
      [
        "2",
        -9.278756141662598
      ],
      [
        "▁অ্যা",
        -9.279047966003418
      ],
      [
        "▁শুধুমাত্র",
        -9.279420852661133
      ],
      [
        "▁where",
        -9.27976417541504
      ],
      [
        "▁ছাড়াও",
        -9.28027057647705
      ],
      [
        "▁বাহিনী",
        -9.280625343322754
      ],
      [
        "▁ভিন্ন",
        -9.280763626098633
      ],
      [
        "▁গুলি",
        -9.280840873718262
      ],
      [
        "▁সফল",
        -9.281407356262209
      ],
      [
        "▁২০২১",
        -9.28199291229248
      ],
      [
        "▁কলেজের",
        -9.28203010559082
      ],
      [
        "▁He",
        -9.282090187072754
      ],
      [
        "▁প্রস্তাব",
        -9.282793998718262
      ],
      [
        "▁কখনও",
        -9.2830810546875
      ],
      [
        "▁গুলো",
        -9.283677101135254
      ],
      [
        "▁দাঁড়িয়ে",
        -9.28432846069336
      ],
      [
        "▁নির্বাচনের",
        -9.285305976867676
      ],
      [
        "▁বলছেন",
        -9.286306381225586
      ],
      [
        "▁এন",
        -9.289047241210938
      ],
      [
        "▁সিনিয়র",
        -9.28913402557373
      ],
      [
        "E",
        -9.290267944335938
      ],
      [
        "▁জাতির",
        -9.290352821350098
      ],
      [
        "▁আধুনিক",
        -9.290632247924805
      ],
      [
        "▁ভাষায়",
        -9.290902137756348
      ],
      [
        "৮",
        -9.29096508026123
      ],
      [
        "▁সক্ষম",
        -9.291739463806152
      ],
      [
        "রো",
        -9.29185390472412
      ],
      [
        "▁দিলে",
        -9.29199504852295
      ],
      [
        "▁ব্যবসায়ী",
        -9.292064666748049
      ],
      [
        "▁ভেঙে",
        -9.29240894317627
      ],
      [
        "▁সামরিক",
        -9.29379940032959
      ],
      [
        "▁মিনিটে",
        -9.294978141784668
      ],
      [
        "▁যত",
        -9.296451568603516
      ],
      [
        "▁বাদ",
        -9.296856880187988
      ],
      [
        "▁তুলনায়",
        -9.296875953674316
      ],
      [
        "এই",
        -9.29710865020752
      ],
      [
        "▁রক্ত",
        -9.297761917114258
      ],
      [
        "এম",
        -9.298630714416504
      ],
      [
        "▁দলীয়",
        -9.298784255981444
      ],
      [
        "▁মন্ত্রণালয়",
        -9.299208641052246
      ],
      [
        "▁পদক্ষেপ",
        -9.299654006958008
      ],
      [
        "▁আগুন",
        -9.300518989562988
      ],
      [
        "▁সংক্রান্ত",
        -9.301901817321776
      ],
      [
        "▁আর্থিক",
        -9.302095413208008
      ],
      [
        "▁গুরুত্ব",
        -9.303242683410645
      ],
      [
        "ছিল",
        -9.303558349609377
      ],
      [
        "k",
        -9.304062843322754
      ],
      [
        "▁আজকের",
        -9.304120063781738
      ],
      [
        "মো",
        -9.30547046661377
      ],
      [
        "▁আরব",
        -9.30592155456543
      ],
      [
        "▁রাখে",
        -9.306941986083984
      ],
      [
        "▁কর্তৃক",
        -9.308713912963867
      ],
      [
        "▁১০০",
        -9.30911922454834
      ],
      [
        "G",
        -9.309778213500977
      ],
      [
        "▁প্রস্তুতি",
        -9.311381340026855
      ],
      [
        "মু",
        -9.31139087677002
      ],
      [
        "▁তারিখ",
        -9.311759948730469
      ],
      [
        "▁ক্লাব",
        -9.31178092956543
      ],
      [
        "▁অনুসারে",
        -9.31192111968994
      ],
      [
        "▁২০১৭",
        -9.31280517578125
      ],
      [
        "▁প্রাক্তন",
        -9.312950134277344
      ],
      [
        "▁শরীরে",
        -9.314142227172852
      ],
      [
        "▁help",
        -9.314360618591309
      ],
      [
        "কাল",
        -9.315287590026855
      ],
      [
        "able",
        -9.31738567352295
      ],
      [
        "▁করব",
        -9.31865406036377
      ],
      [
        "▁অনুমতি",
        -9.318822860717772
      ],
      [
        "▁উপরে",
        -9.319196701049805
      ],
      [
        "▁মধ্যেই",
        -9.31980037689209
      ],
      [
        "▁স্থাপন",
        -9.31991958618164
      ],
      [
        "▁দায়ের",
        -9.320262908935549
      ],
      [
        "▁মন্ত্রণালয়ের",
        -9.32065200805664
      ],
      [
        "▁N",
        -9.32129955291748
      ],
      [
        "▁লক্ষ্যে",
        -9.321861267089844
      ],
      [
        "▁প্রশাসন",
        -9.321905136108398
      ],
      [
        "▁ভারপ্রাপ্ত",
        -9.322831153869627
      ],
      [
        "▁রাষ্ট্র",
        -9.325054168701172
      ],
      [
        "▁চুক্তি",
        -9.326640129089355
      ],
      [
        "▁প্রিয়",
        -9.327037811279297
      ],
      [
        "গত",
        -9.327377319335938
      ],
      [
        "▁সহযোগিতা",
        -9.328161239624023
      ],
      [
        "▁জেলায়",
        -9.329463958740234
      ],
      [
        "▁বাহিনীর",
        -9.329863548278809
      ],
      [
        "▁রবিবার",
        -9.329872131347656
      ],
      [
        "▁পরিচালিত",
        -9.329934120178224
      ],
      [
        "▁প্রমুখ",
        -9.330822944641112
      ],
      [
        "▁শনাক্ত",
        -9.331500053405762
      ],
      [
        "▁বলছে",
        -9.333104133605955
      ],
      [
        "জে",
        -9.333207130432127
      ],
      [
        "▁গভীর",
        -9.333258628845217
      ],
      [
        "le",
        -9.333403587341309
      ],
      [
        "▁চিকিৎসক",
        -9.33380889892578
      ],
      [
        "▁পদ",
        -9.334246635437012
      ],
      [
        "▁রূপ",
        -9.335040092468262
      ],
      [
        "▁শুনে",
        -9.33544635772705
      ],
      [
        "লাম",
        -9.33604621887207
      ],
      [
        "▁অঞ্চলে",
        -9.336600303649902
      ],
      [
        "▁#",
        -9.337023735046388
      ],
      [
        "▁২৯",
        -9.33765697479248
      ],
      [
        "▁বে",
        -9.337735176086426
      ],
      [
        "১৮",
        -9.338216781616213
      ],
      [
        "▁very",
        -9.338491439819336
      ],
      [
        "▁পয়েন্ট",
        -9.33931827545166
      ],
      [
        "▁মসজিদ",
        -9.340038299560549
      ],
      [
        "▁গ্রুপ",
        -9.340147018432615
      ],
      [
        "▁We",
        -9.340560913085938
      ],
      [
        "০০০",
        -9.340681076049805
      ],
      [
        "▁K",
        -9.340853691101074
      ],
      [
        "▁বেলা",
        -9.341005325317385
      ],
      [
        "▁পৌঁছে",
        -9.341924667358398
      ],
      [
        "▁কারো",
        -9.342002868652344
      ],
      [
        "▁তেমন",
        -9.342432975769045
      ],
      [
        "▁আপনারা",
        -9.343079566955566
      ],
      [
        "▁সম্মেলনে",
        -9.343531608581545
      ],
      [
        "▁কলকাতা",
        -9.343951225280762
      ],
      [
        "▁ধর্মীয়",
        -9.345170974731444
      ],
      [
        "▁বিরোধী",
        -9.34566593170166
      ],
      [
        "▁ইসলামের",
        -9.346357345581056
      ],
      [
        "▁কক্সবাজার",
        -9.346548080444336
      ],
      [
        "▁মাহমুদ",
        -9.346636772155762
      ],
      [
        "▁her",
        -9.351017951965332
      ],
      [
        "▁পাবে",
        -9.35110092163086
      ],
      [
        "▁দৈনিক",
        -9.351978302001951
      ],
      [
        "▁ক্ষতি",
        -9.352750778198242
      ],
      [
        "▁যেসব",
        -9.352909088134766
      ],
      [
        "▁পেয়েছেন",
        -9.353010177612305
      ],
      [
        "▁ঘুরে",
        -9.353046417236328
      ],
      [
        "▁because",
        -9.355050086975098
      ],
      [
        "▁দিচ্ছে",
        -9.355053901672363
      ],
      [
        "▁ফি",
        -9.35598373413086
      ],
      [
        "▁গ্রেপ্তার",
        -9.35602855682373
      ],
      [
        "▁কেটে",
        -9.35604763031006
      ],
      [
        "▁উদ্দেশ্যে",
        -9.356260299682615
      ],
      [
        "▁অল্প",
        -9.356422424316406
      ],
      [
        "হীন",
        -9.35824489593506
      ],
      [
        "▁কার্ড",
        -9.358498573303224
      ],
      [
        "▁খেলে",
        -9.35942268371582
      ],
      [
        "▁অর্থনৈতিক",
        -9.360455513000488
      ],
      [
        "▁কর্মী",
        -9.360655784606934
      ],
      [
        "▁after",
        -9.360706329345703
      ],
      [
        "▁কো",
        -9.36095142364502
      ],
      [
        "▁বাধা",
        -9.361275672912598
      ],
      [
        "▁দিল",
        -9.361576080322266
      ],
      [
        "▁জ্ঞান",
        -9.361898422241213
      ],
      [
        "▁নামক",
        -9.363713264465332
      ],
      [
        "দিন",
        -9.364611625671388
      ],
      [
        "▁শতাব্দীর",
        -9.364938735961914
      ],
      [
        "▁গো",
        -9.364964485168455
      ],
      [
        "▁ঢাকায়",
        -9.365118980407717
      ],
      [
        "▁চাকরি",
        -9.365449905395508
      ],
      [
        "▁জনগণের",
        -9.36614227294922
      ],
      [
        "শি",
        -9.367546081542969
      ],
      [
        "▁অতি",
        -9.367655754089355
      ],
      [
        "▁un",
        -9.367886543273926
      ],
      [
        "▁কমিশন",
        -9.367899894714355
      ],
      [
        "▁কামাল",
        -9.3681640625
      ],
      [
        "▁কার্যকর",
        -9.36818790435791
      ],
      [
        "টিকে",
        -9.36915683746338
      ],
      [
        "▁জারি",
        -9.37038803100586
      ],
      [
        "▁শীর্ষ",
        -9.371684074401855
      ],
      [
        "কু",
        -9.372055053710938
      ],
      [
        "▁বেসরকারি",
        -9.372819900512695
      ],
      [
        "▁ফলাফল",
        -9.372937202453612
      ],
      [
        "▁প্রধানমন্ত্রীর",
        -9.373284339904783
      ],
      [
        "ওয়া",
        -9.374055862426758
      ],
      [
        "▁সরবরাহ",
        -9.374778747558594
      ],
      [
        "▁way",
        -9.375422477722168
      ],
      [
        "▁সমর্থন",
        -9.376213073730469
      ],
      [
        "▁২০১৬",
        -9.37759780883789
      ],
      [
        "▁বাঙালি",
        -9.378158569335938
      ],
      [
        "▁সংক্রমণ",
        -9.378680229187012
      ],
      [
        "▁then",
        -9.379895210266112
      ],
      [
        "▁অঞ্চল",
        -9.37997055053711
      ],
      [
        "▁অথচ",
        -9.380218505859377
      ],
      [
        "▁নির্দেশনা",
        -9.380346298217772
      ],
      [
        "▁হ",
        -9.380627632141112
      ],
      [
        "▁লা",
        -9.380692481994627
      ],
      [
        "▁দেশটির",
        -9.381808280944824
      ],
      [
        "▁শরীরের",
        -9.382037162780762
      ],
      [
        "▁পরিষ্কার",
        -9.38356876373291
      ],
      [
        "▁19",
        -9.38623046875
      ],
      [
        "▁স্টেশন",
        -9.389095306396484
      ],
      [
        "▁5",
        -9.39018440246582
      ],
      [
        "ভা",
        -9.390377044677734
      ],
      [
        "▁প্রক্রিয়া",
        -9.391243934631348
      ],
      [
        "▁শক্তিশালী",
        -9.39145565032959
      ],
      [
        "▁উদ্বোধন",
        -9.39174747467041
      ],
      [
        "▁need",
        -9.393071174621582
      ],
      [
        "▁খোলা",
        -9.393488883972168
      ],
      [
        "০",
        -9.39443588256836
      ],
      [
        "▁অস্ত্র",
        -9.397153854370115
      ],
      [
        "▁কালো",
        -9.397516250610352
      ],
      [
        "▁ঘণ্টা",
        -9.397526741027832
      ],
      [
        "▁নং",
        -9.397786140441896
      ],
      [
        "▁আনন্দ",
        -9.399055480957031
      ],
      [
        "সু",
        -9.399421691894531
      ],
      [
        "▁সাদা",
        -9.399572372436523
      ],
      [
        "১০",
        -9.400945663452148
      ],
      [
        "▁সমাধান",
        -9.402947425842283
      ],
      [
        "to",
        -9.40418529510498
      ],
      [
        "▁যুগ্ম",
        -9.404316902160645
      ],
      [
        "▁মহা",
        -9.404725074768066
      ],
      [
        "▁চুল",
        -9.405309677124023
      ],
      [
        "▁প",
        -9.405990600585938
      ],
      [
        "▁সাংবাদিকদের",
        -9.406030654907228
      ],
      [
        "▁নিউ",
        -9.406126976013184
      ],
      [
        "▁রাজ",
        -9.40761375427246
      ],
      [
        "▁৩১",
        -9.408949851989746
      ],
      [
        "▁রাজধানী",
        -9.409761428833008
      ],
      [
        "▁ঘুম",
        -9.40997314453125
      ],
      [
        "৩০",
        -9.410651206970217
      ],
      [
        "▁হাসপাতালের",
        -9.41084098815918
      ],
      [
        "▁লাশ",
        -9.41117000579834
      ],
      [
        "▁ব্যাংকের",
        -9.411483764648438
      ],
      [
        "▁শারীরিক",
        -9.412056922912598
      ],
      [
        "▁গাছ",
        -9.412115097045898
      ],
      [
        "▁মি",
        -9.412450790405272
      ],
      [
        "▁প্রতিবেদন",
        -9.4130277633667
      ],
      [
        "▁বলেও",
        -9.413113594055176
      ],
      [
        "▁even",
        -9.413314819335938
      ],
      [
        "▁তাদেরকে",
        -9.41396713256836
      ],
      [
        "▁চলেছে",
        -9.414399147033691
      ],
      [
        "1",
        -9.414542198181152
      ],
      [
        "▁চন্দ্র",
        -9.41469383239746
      ],
      [
        "▁4",
        -9.414875984191896
      ],
      [
        "▁প্রতিষ্ঠা",
        -9.415243148803713
      ],
      [
        "▁p",
        -9.415752410888672
      ],
      [
        "▁রাস্তা",
        -9.415793418884276
      ],
      [
        "▁কষ্ট",
        -9.416683197021484
      ],
      [
        "▁মানসিক",
        -9.417222023010254
      ],
      [
        "▁বিশিষ্ট",
        -9.417410850524902
      ],
      [
        "▁world",
        -9.417442321777344
      ],
      [
        "▁খেয়ে",
        -9.41767120361328
      ],
      [
        "▁কোথাও",
        -9.417717933654783
      ],
      [
        "▁প্রাণ",
        -9.420119285583496
      ],
      [
        "▁সভাপতিত্বে",
        -9.421195030212402
      ],
      [
        "কৃত",
        -9.421330451965332
      ],
      [
        "ity",
        -9.42147731781006
      ],
      [
        "▁different",
        -9.421557426452637
      ],
      [
        "ীর",
        -9.421907424926758
      ],
      [
        "▁L",
        -9.422113418579102
      ],
      [
        "ইন",
        -9.422958374023438
      ],
      [
        "▁system",
        -9.423203468322754
      ],
      [
        "▁বার্তা",
        -9.42333984375
      ],
      [
        "▁চিত্র",
        -9.42347526550293
      ],
      [
        "▁মহানগর",
        -9.42348861694336
      ],
      [
        "x",
        -9.42416000366211
      ],
      [
        "▁কাদের",
        -9.424510955810549
      ],
      [
        "▁অন্তর্ভুক্ত",
        -9.424824714660645
      ],
      [
        "▁information",
        -9.425223350524902
      ],
      [
        "▁শুভ",
        -9.426194190979004
      ],
      [
        "▁those",
        -9.426334381103516
      ],
      [
        "▁পুত্র",
        -9.426671028137209
      ],
      [
        "▁সংগঠনের",
        -9.42681884765625
      ],
      [
        "▁ইউ",
        -9.4277925491333
      ],
      [
        "▁সংস্থার",
        -9.427943229675291
      ],
      [
        "▁বেরিয়ে",
        -9.429309844970703
      ],
      [
        "▁কবির",
        -9.429532051086426
      ],
      [
        "▁যেহেতু",
        -9.429885864257812
      ],
      [
        "▁কল",
        -9.430347442626951
      ],
      [
        "▁As",
        -9.430915832519531
      ],
      [
        "st",
        -9.432035446166992
      ],
      [
        "▁বিস্তারিত",
        -9.432196617126465
      ],
      [
        "▁just",
        -9.43243408203125
      ],
      [
        "▁কর্মসূচি",
        -9.432846069335938
      ],
      [
        "▁জন্যে",
        -9.433391571044922
      ],
      [
        "▁being",
        -9.435479164123535
      ],
      [
        "▁ছবির",
        -9.4370698928833
      ],
      [
        "▁বাধ্য",
        -9.437376022338867
      ],
      [
        "▁এল",
        -9.437463760375977
      ],
      [
        "▁নিজে",
        -9.43755340576172
      ],
      [
        ".”",
        -9.43828010559082
      ],
      [
        "▁বয়সী",
        -9.4382963180542
      ],
      [
        "▁life",
        -9.438325881958008
      ],
      [
        "▁বোর্ড",
        -9.438329696655272
      ],
      [
        "▁যাই",
        -9.438518524169922
      ],
      [
        "▁পরিবহন",
        -9.439238548278809
      ],
      [
        "▁পোশাক",
        -9.43931484222412
      ],
      [
        "▁পূর্বে",
        -9.4393310546875
      ],
      [
        "▁সবাইকে",
        -9.439335823059082
      ],
      [
        "▁অধিনায়ক",
        -9.43948459625244
      ],
      [
        "ায়",
        -9.439544677734377
      ],
      [
        "F",
        -9.44022274017334
      ],
      [
        "নী",
        -9.440741539001465
      ],
      [
        "▁চাহিদা",
        -9.4412841796875
      ],
      [
        "▁U",
        -9.441773414611816
      ],
      [
        "▁কম্পিউটার",
        -9.442554473876951
      ],
      [
        "▁শান্তি",
        -9.442971229553224
      ],
      [
        "h",
        -9.44372272491455
      ],
      [
        "▁ধন্যবাদ",
        -9.443982124328612
      ],
      [
        "▁দেখার",
        -9.44406509399414
      ],
      [
        "নার",
        -9.444429397583008
      ],
      [
        "P",
        -9.444828987121582
      ],
      [
        "▁children",
        -9.446806907653809
      ],
      [
        "://",
        -9.44753646850586
      ],
      [
        "▁নিয়েছেন",
        -9.447659492492676
      ],
      [
        "▁You",
        -9.448339462280272
      ],
      [
        "▁সদস্যরা",
        -9.448344230651855
      ],
      [
        "▁টিকা",
        -9.44839572906494
      ],
      [
        "▁করেই",
        -9.44848346710205
      ],
      [
        "▁ভাষার",
        -9.4491548538208
      ],
      [
        "ive",
        -9.449753761291504
      ],
      [
        "▁রানের",
        -9.44996166229248
      ],
      [
        "▁কেজি",
        -9.45012664794922
      ],
      [
        "▁প্রস্তুত",
        -9.45024871826172
      ],
      [
        "▁মুক্ত",
        -9.45033359527588
      ],
      [
        "▁রহমানের",
        -9.45047664642334
      ],
      [
        "▁প্রশিক্ষণ",
        -9.450526237487791
      ],
      [
        "▁অভিজ্ঞতা",
        -9.45059871673584
      ],
      [
        "▁আলো",
        -9.451130867004396
      ],
      [
        "▁ব্যক্তির",
        -9.452492713928224
      ],
      [
        "▁গঠিত",
        -9.45343017578125
      ],
      [
        "▁said",
        -9.453633308410645
      ],
      [
        "▁দিলেন",
        -9.453646659851074
      ],
      [
        "▁অব্যাহত",
        -9.454062461853027
      ],
      [
        "▁জে",
        -9.454411506652832
      ],
      [
        "▁বাংলার",
        -9.455918312072754
      ],
      [
        "▁নির্ধারণ",
        -9.45701503753662
      ],
      [
        "েও",
        -9.457797050476074
      ],
      [
        "সমূহ",
        -9.457799911499023
      ],
      [
        "▁important",
        -9.459760665893556
      ],
      [
        "▁একদিন",
        -9.46157169342041
      ],
      [
        "▁বিজেপি",
        -9.461697578430176
      ],
      [
        "▁তালিকায়",
        -9.46212673187256
      ],
      [
        "▁গরম",
        -9.462626457214355
      ],
      [
        "el",
        -9.463217735290527
      ],
      [
        "৯",
        -9.463262557983398
      ],
      [
        "▁শরীর",
        -9.46336841583252
      ],
      [
        "▁হাই",
        -9.464044570922852
      ],
      [
        "ar",
        -9.464426040649414
      ],
      [
        "▁কমিশনার",
        -9.465167045593262
      ],
      [
        "▁They",
        -9.465591430664062
      ],
      [
        "▁ভাইরাস",
        -9.466465950012209
      ],
      [
        "▁শত",
        -9.466608047485352
      ],
      [
        "▁ডাক",
        -9.466716766357422
      ],
      [
        "▁পৌর",
        -9.467029571533203
      ],
      [
        "▁ঘটেছে",
        -9.467060089111328
      ],
      [
        "|",
        -9.468552589416504
      ],
      [
        "ছিলেন",
        -9.468735694885254
      ],
      [
        "▁লোকজন",
        -9.468912124633787
      ],
      [
        "▁যৌন",
        -9.469547271728516
      ],
      [
        "▁ওষুধ",
        -9.470481872558594
      ],
      [
        "▁কয়েকজন",
        -9.470727920532228
      ],
      [
        "▁উপজেলায়",
        -9.472131729125977
      ],
      [
        "▁অঞ্চলের",
        -9.472147941589355
      ],
      [
        "▁প্রতিষ্ঠানের",
        -9.47299098968506
      ],
      [
        "▁তে",
        -9.47365665435791
      ],
      [
        "ষ্ট",
        -9.474854469299316
      ],
      [
        "▁২০১৪",
        -9.475334167480469
      ],
      [
        "▁উদ্দেশ্য",
        -9.475351333618164
      ],
      [
        "▁যুক্তরাষ্ট্র",
        -9.476417541503906
      ],
      [
        "ফা",
        -9.477010726928713
      ],
      [
        "▁পার্টির",
        -9.477203369140623
      ],
      [
        "▁জুড়ে",
        -9.477228164672852
      ],
      [
        "▁প্রশ্নের",
        -9.477331161499023
      ],
      [
        "▁each",
        -9.47749137878418
      ],
      [
        "▁মুক্তিযোদ্ধা",
        -9.477655410766602
      ],
      [
        "▁সর্বশেষ",
        -9.478304862976074
      ],
      [
        "গো",
        -9.480201721191406
      ],
      [
        "en",
        -9.48143196105957
      ],
      [
        "▁নাগরিক",
        -9.48190975189209
      ],
      [
        "▁মাওলানা",
        -9.481925010681152
      ],
      [
        "▁দখল",
        -9.482441902160645
      ],
      [
        "▁বন",
        -9.483612060546877
      ],
      [
        "▁সিনেমা",
        -9.484223365783691
      ],
      [
        "▁বর্ণনা",
        -9.484270095825195
      ],
      [
        "টাই",
        -9.484834671020508
      ],
      [
        "শা",
        -9.486018180847168
      ],
      [
        "▁বেশিরভাগ",
        -9.486334800720217
      ],
      [
        "▁আম",
        -9.486668586730955
      ],
      [
        "▁২০১৫",
        -9.486798286437988
      ],
      [
        "কালে",
        -9.487046241760254
      ],
      [
        "il",
        -9.48757266998291
      ],
      [
        "▁ঘরের",
        -9.488001823425291
      ],
      [
        "টে",
        -9.488460540771484
      ],
      [
        "িয়ে",
        -9.490325927734377
      ],
      [
        "▁প্রতিরোধ",
        -9.490550994873049
      ],
      [
        "▁উৎসব",
        -9.491416931152344
      ],
      [
        "▁করোনার",
        -9.49303913116455
      ],
      [
        "▁পড়ার",
        -9.493227005004885
      ],
      [
        "▁কার",
        -9.493830680847168
      ],
      [
        "▁মাধ্যমিক",
        -9.494291305541992
      ],
      [
        "▁দোকান",
        -9.495428085327148
      ],
      [
        "▁বিকেলে",
        -9.496028900146484
      ],
      [
        "▁বাবার",
        -9.496418952941896
      ],
      [
        "▁much",
        -9.496642112731934
      ],
      [
        "▁উল্লেখযোগ্য",
        -9.497384071350098
      ],
      [
        "▁ঋণ",
        -9.49749755859375
      ],
      [
        "▁দাস",
        -9.498818397521973
      ],
      [
        "▁তারিখে",
        -9.499313354492188
      ],
      [
        "▁নিরাপদ",
        -9.49976634979248
      ],
      [
        "▁J",
        -9.50000286102295
      ],
      [
        "▁মানব",
        -9.500123977661133
      ],
      [
        "▁W",
        -9.500235557556152
      ],
      [
        "▁অপেক্ষা",
        -9.50026035308838
      ],
      [
        "▁উভয়",
        -9.50048828125
      ],
      [
        "▁Re",
        -9.500489234924316
      ],
      [
        "▁দেখি",
        -9.50080680847168
      ],
      [
        "▁পবিত্র",
        -9.501456260681152
      ],
      [
        "▁বৈঠক",
        -9.50172519683838
      ],
      [
        "▁পারেনি",
        -9.501910209655762
      ],
      [
        "ত্ব",
        -9.502540588378906
      ],
      [
        "▁To",
        -9.50256633758545
      ],
      [
        "▁বৈঠকে",
        -9.50256633758545
      ],
      [
        "▁ইংরেজি",
        -9.503290176391602
      ],
      [
        "▁বিখ্যাত",
        -9.504672050476074
      ],
      [
        "▁পাই",
        -9.504807472229004
      ],
      [
        "▁পালিয়ে",
        -9.505289077758787
      ],
      [
        "▁ত",
        -9.505415916442873
      ],
      [
        "▁তরুণ",
        -9.505627632141112
      ],
      [
        "▁কাউকে",
        -9.505653381347656
      ],
      [
        "▁দিয়েছিলেন",
        -9.506590843200684
      ],
      [
        "▁আইনজীবী",
        -9.506622314453123
      ],
      [
        "▁চরিত্রে",
        -9.50683307647705
      ],
      [
        "▁জিয়া",
        -9.507336616516112
      ],
      [
        "▁অধীনে",
        -9.507795333862305
      ],
      [
        "▁এমপি",
        -9.50822639465332
      ],
      [
        "▁আওতায়",
        -9.509061813354492
      ],
      [
        "▁বয়সে",
        -9.509121894836426
      ],
      [
        "▁high",
        -9.509162902832031
      ],
      [
        "▁ডিগ্রি",
        -9.509930610656738
      ],
      [
        "▁দুপুর",
        -9.51052474975586
      ],
      [
        "▁নারীর",
        -9.510966300964355
      ],
      [
        "▁মুহাম্মদ",
        -9.511507034301758
      ],
      [
        "▁আক্তার",
        -9.512248039245604
      ],
      [
        "▁চূড়ান্ত",
        -9.514111518859863
      ],
      [
        "▁ইসলামী",
        -9.515176773071287
      ],
      [
        "▁get",
        -9.515350341796877
      ],
      [
        "▁চীনের",
        -9.515382766723633
      ],
      [
        "▁গ",
        -9.515387535095217
      ],
      [
        "▁ভাড়া",
        -9.515753746032717
      ],
      [
        "▁স্থায়ী",
        -9.51597499847412
      ],
      [
        "▁জা",
        -9.516819953918455
      ],
      [
        "▁রোগী",
        -9.517827033996582
      ],
      [
        "▁মিলে",
        -9.519859313964844
      ],
      [
        "▁সম্পদ",
        -9.5201416015625
      ],
      [
        "▁হত",
        -9.521053314208984
      ],
      [
        "▁নষ্ট",
        -9.521164894104004
      ],
      [
        "▁সাংস্কৃতিক",
        -9.52212142944336
      ],
      [
        "▁করল",
        -9.52387523651123
      ],
      [
        "▁found",
        -9.524639129638672
      ],
      [
        "▁সার্ভিস",
        -9.525151252746582
      ],
      [
        "▁during",
        -9.5252103805542
      ],
      [
        "▁data",
        -9.525419235229492
      ],
      [
        "রু",
        -9.52610969543457
      ],
      [
        "লার",
        -9.526145935058594
      ],
      [
        "▁এদিন",
        -9.526442527770996
      ],
      [
        "▁জোর",
        -9.526484489440918
      ],
      [
        "▁উপাদান",
        -9.527471542358398
      ],
      [
        "H",
        -9.528450965881348
      ],
      [
        "▁৬০",
        -9.529675483703612
      ],
      [
        "u",
        -9.53062343597412
      ],
      [
        "পে",
        -9.531072616577148
      ],
      [
        "লেন",
        -9.531350135803224
      ],
      [
        "▁অনলাইনে",
        -9.532670974731444
      ],
      [
        "▁পূর্ণ",
        -9.533124923706056
      ],
      [
        "▁=",
        -9.533767700195312
      ],
      [
        "▁টু",
        -9.533980369567873
      ],
      [
        "▁বিল",
        -9.534003257751465
      ],
      [
        "▁হামলার",
        -9.534810066223145
      ],
      [
        "ve",
        -9.535359382629396
      ],
      [
        "▁সেখান",
        -9.535599708557127
      ],
      [
        "▁আল্লাহর",
        -9.536215782165527
      ],
      [
        "▁জনকে",
        -9.536354064941406
      ],
      [
        "▁আসন",
        -9.536555290222168
      ],
      [
        "▁কোভিড",
        -9.536763191223145
      ],
      [
        "▁part",
        -9.53732204437256
      ],
      [
        "▁ব",
        -9.53782844543457
      ],
      [
        "▁ওসি",
        -9.537969589233398
      ],
      [
        "▁10",
        -9.538177490234377
      ],
      [
        "▁ব্যয়",
        -9.53851318359375
      ],
      [
        "▁রাষ্ট্রপতি",
        -9.538962364196776
      ],
      [
        "▁পরীক্ষায়",
        -9.540447235107422
      ],
      [
        "▁সাহিত্য",
        -9.540544509887695
      ],
      [
        "▁অভিযোগে",
        -9.540863037109377
      ],
      [
        "▁রানে",
        -9.541772842407228
      ],
      [
        "▁কাল",
        -9.542181015014648
      ],
      [
        "K",
        -9.542309761047363
      ],
      [
        "▁উক্ত",
        -9.54281997680664
      ],
      [
        "‘",
        -9.54328727722168
      ],
      [
        "▁দীর্ঘদিন",
        -9.544977188110352
      ],
      [
        "▁সৈয়দ",
        -9.545056343078612
      ],
      [
        "▁চলবে",
        -9.545125961303713
      ],
      [
        "▁সমাজের",
        -9.545422554016112
      ],
      [
        "▁ইউপি",
        -9.54784870147705
      ],
      [
        "▁আঘাত",
        -9.548152923583984
      ],
      [
        "▁উদ্যোগে",
        -9.54926872253418
      ],
      [
        "▁প্রকল্পের",
        -9.549271583557127
      ],
      [
        "▁চলাচল",
        -9.549798011779783
      ],
      [
        "▁আয়োজিত",
        -9.54994010925293
      ],
      [
        "?”",
        -9.550317764282228
      ],
      [
        "▁স্বীকার",
        -9.550415992736816
      ],
      [
        "▁মিলিয়ন",
        -9.550660133361816
      ],
      [
        "▁রোহিঙ্গা",
        -9.551148414611816
      ],
      [
        "১২",
        -9.551728248596191
      ],
      [
        "▁আইনের",
        -9.552077293395996
      ],
      [
        "▁সদস্যদের",
        -9.552403450012209
      ],
      [
        "▁বিকল্প",
        -9.553208351135254
      ],
      [
        "ক্স",
        -9.553518295288086
      ],
      [
        "▁রাজনীতিবিদ",
        -9.554211616516112
      ],
      [
        "ment",
        -9.55475616455078
      ],
      [
        "▁students",
        -9.554981231689451
      ],
      [
        "▁নির্মিত",
        -9.555597305297852
      ],
      [
        "▁ছবিতে",
        -9.556279182434082
      ],
      [
        "▁us",
        -9.55690574645996
      ],
      [
        "▁But",
        -9.557011604309082
      ],
      [
        "▁চীন",
        -9.55783462524414
      ],
      [
        "▁এগুলো",
        -9.55820083618164
      ],
      [
        "▁ইন্টারনেট",
        -9.55840015411377
      ],
      [
        "▁under",
        -9.558544158935549
      ],
      [
        "ৎ",
        -9.558746337890623
      ],
      [
        "T",
        -9.55915641784668
      ],
      [
        "স্থ",
        -9.559173583984377
      ],
      [
        "▁রাজশাহী",
        -9.559344291687012
      ],
      [
        "▁শিশুদের",
        -9.559640884399414
      ],
      [
        "▁ভেতরে",
        -9.56002140045166
      ],
      [
        "▁যথেষ্ট",
        -9.56025505065918
      ],
      [
        "▁বেড়েছে",
        -9.56084156036377
      ],
      [
        "▁লড়াই",
        -9.56105899810791
      ],
      [
        "▁পেছনে",
        -9.561904907226562
      ],
      [
        "▁আরেকটি",
        -9.562807083129885
      ],
      [
        "▁যাবেন",
        -9.563072204589844
      ],
      [
        "▁এরকম",
        -9.563424110412598
      ],
      [
        "১৫",
        -9.563772201538086
      ],
      [
        "▁ল",
        -9.564586639404297
      ],
      [
        "▁বাতিল",
        -9.564605712890623
      ],
      [
        "▁নমুনা",
        -9.565193176269531
      ],
      [
        "▁অপরাধ",
        -9.56575870513916
      ],
      [
        "▁বীর",
        -9.566449165344238
      ],
      [
        "▁বিদ্যালয়ের",
        -9.56679916381836
      ],
      [
        "▁ছাত্রলীগের",
        -9.56697940826416
      ],
      [
        "▁same",
        -9.56824779510498
      ],
      [
        "▁বদলে",
        -9.568326950073242
      ],
      [
        "▁টিভি",
        -9.568674087524414
      ],
      [
        "▁/",
        -9.568883895874023
      ],
      [
        "▁এনে",
        -9.5690336227417
      ],
      [
        "▁মন্দির",
        -9.570404052734377
      ],
      [
        "মার",
        -9.570415496826172
      ],
      [
        "▁আট",
        -9.570884704589844
      ],
      [
        "▁মিডিয়া",
        -9.570919036865234
      ],
      [
        "টো",
        -9.57123565673828
      ],
      [
        "▁টিম",
        -9.57151699066162
      ],
      [
        "▁ন",
        -9.571775436401367
      ],
      [
        "▁চতুর্থ",
        -9.572287559509276
      ],
      [
        "▁বাড়িয়ে",
        -9.572336196899414
      ],
      [
        "▁করলেও",
        -9.573357582092283
      ],
      [
        "▁সিং",
        -9.57367706298828
      ],
      [
        "▁health",
        -9.574169158935549
      ],
      [
        "▁অপর",
        -9.574811935424805
      ],
      [
        "W",
        -9.575343132019045
      ],
      [
        "▁made",
        -9.57717227935791
      ],
      [
        "▁আদায়",
        -9.57864761352539
      ],
      [
        "▁প্রবাসী",
        -9.581459045410156
      ],
      [
        "ুন",
        -9.58337116241455
      ],
      [
        "▁বলেছিলেন",
        -9.583954811096191
      ],
      [
        "▁উৎস",
        -9.584016799926758
      ],
      [
        "▁জড়িয়ে",
        -9.58411979675293
      ],
      [
        "▁জীবিত",
        -9.58414363861084
      ],
      [
        "▁হত্যার",
        -9.585018157958984
      ],
      [
        "▁সেগুলো",
        -9.585054397583008
      ],
      [
        "যা",
        -9.58523654937744
      ],
      [
        "▁বলি",
        -9.585543632507324
      ],
      [
        "▁তীব্র",
        -9.585865020751951
      ],
      [
        "▁রাস্তায়",
        -9.585871696472168
      ],
      [
        "▁ভিত্তি",
        -9.58714485168457
      ],
      [
        "বাদ",
        -9.587154388427734
      ],
      [
        "▁বাংলাদেশি",
        -9.58749294281006
      ],
      [
        "▁তৃণমূল",
        -9.587506294250488
      ],
      [
        "▁মহান",
        -9.587900161743164
      ],
      [
        "▁চাল",
        -9.587944984436035
      ],
      [
        "▁করায়",
        -9.588052749633787
      ],
      [
        "▁see",
        -9.588147163391112
      ],
      [
        "▁হু",
        -9.588258743286133
      ],
      [
        "w",
        -9.588614463806152
      ],
      [
        "▁টেলিভিশন",
        -9.588615417480469
      ],
      [
        "▁নিজেই",
        -9.58910846710205
      ],
      [
        "▁চারটি",
        -9.589874267578123
      ],
      [
        "▁পড়েন",
        -9.59022331237793
      ],
      [
        "▁প্রতিবাদ",
        -9.590461730957031
      ],
      [
        "▁ডাক্তার",
        -9.592025756835938
      ],
      [
        "▁প্রতিবেদনে",
        -9.59227180480957
      ],
      [
        "The",
        -9.592970848083496
      ],
      [
        "man",
        -9.593052864074709
      ],
      [
        "▁ভি",
        -9.593748092651367
      ],
      [
        "▁হাসিনার",
        -9.593988418579102
      ],
      [
        "it",
        -9.594351768493652
      ],
      [
        "▁করবো",
        -9.594956398010254
      ],
      [
        "▁সবুজ",
        -9.595674514770508
      ],
      [
        "▁প্রশাসক",
        -9.595720291137695
      ],
      [
        "▁ওয়া",
        -9.595842361450195
      ],
      [
        "▁রাম",
        -9.59585952758789
      ],
      [
        "▁মনোনয়ন",
        -9.596024513244627
      ],
      [
        "▁কর্ম",
        -9.59622287750244
      ],
      [
        "▁আক্রমণ",
        -9.596457481384276
      ],
      [
        "▁বাংলাদেশী",
        -9.59675407409668
      ],
      [
        "▁নেতৃত্ব",
        -9.5985107421875
      ],
      [
        "▁There",
        -9.598793983459473
      ],
      [
        "▁চোখের",
        -9.59931182861328
      ],
      [
        "the",
        -9.599595069885254
      ],
      [
        "▁হয়েছিলেন",
        -9.599844932556152
      ],
      [
        "কর",
        -9.60003662109375
      ],
      [
        "▁তথা",
        -9.600675582885742
      ],
      [
        "...",
        -9.600728034973145
      ],
      [
        "▁নির্ভর",
        -9.60129451751709
      ],
      [
        "হি",
        -9.601821899414062
      ],
      [
        "▁long",
        -9.602137565612791
      ],
      [
        "▁নির্ধারিত",
        -9.603700637817385
      ],
      [
        "▁both",
        -9.604093551635742
      ],
      [
        "▁কঠোর",
        -9.60499382019043
      ],
      [
        "▁২০১১",
        -9.605467796325684
      ],
      [
        "▁বিজয়",
        -9.605842590332031
      ],
      [
        "▁সেনা",
        -9.60585117340088
      ],
      [
        "▁লিখেছেন",
        -9.607179641723633
      ],
      [
        "▁কন্যা",
        -9.607234001159668
      ],
      [
        "▁মিটার",
        -9.607654571533203
      ],
      [
        "▁What",
        -9.607672691345217
      ],
      [
        "▁নারীদের",
        -9.608039855957031
      ],
      [
        "লু",
        -9.608560562133787
      ],
      [
        "ভিত্তিক",
        -9.608574867248535
      ],
      [
        "▁সম্পর্কিত",
        -9.609148025512695
      ],
      [
        "শন",
        -9.609786987304688
      ],
      [
        "▁ঘণ্টায়",
        -9.609907150268556
      ],
      [
        "▁স্বাধীন",
        -9.610483169555664
      ],
      [
        "▁হে",
        -9.61075496673584
      ],
      [
        "▁কোম্পানির",
        -9.610776901245115
      ],
      [
        "▁জানেন",
        -9.612282752990724
      ],
      [
        "▁অবৈধ",
        -9.612805366516112
      ],
      [
        "▁বলেই",
        -9.613426208496094
      ],
      [
        "▁সাংগঠনিক",
        -9.613777160644531
      ],
      [
        "▁আরেক",
        -9.614049911499023
      ],
      [
        "▁যাত্রী",
        -9.614788055419922
      ],
      [
        "▁বিবেচনা",
        -9.614975929260254
      ],
      [
        "▁যাত্রা",
        -9.614995002746582
      ],
      [
        "▁New",
        -9.615435600280762
      ],
      [
        "▁সপ্তাহে",
        -9.61565113067627
      ],
      [
        "▁ভবন",
        -9.615723609924316
      ],
      [
        "▁&",
        -9.615744590759276
      ],
      [
        "ll",
        -9.616183280944824
      ],
      [
        "▁year",
        -9.61622714996338
      ],
      [
        "▁কৃষক",
        -9.61786651611328
      ],
      [
        "▁লে",
        -9.618037223815918
      ],
      [
        "▁সমস্যার",
        -9.618124008178713
      ],
      [
        "id",
        -9.619402885437012
      ],
      [
        "গুলিতে",
        -9.619949340820312
      ],
      [
        "▁তুলতে",
        -9.6204833984375
      ],
      [
        "▁নীতি",
        -9.62097454071045
      ],
      [
        "▁দুধ",
        -9.62204360961914
      ],
      [
        "▁মিলিয়ে",
        -9.62283706665039
      ],
      [
        "▁জিনিস",
        -9.62306022644043
      ],
      [
        "▁before",
        -9.623085021972656
      ],
      [
        "▁পার্টি",
        -9.62342929840088
      ],
      [
        "▁ডে",
        -9.623644828796388
      ],
      [
        "▁using",
        -9.62371063232422
      ],
      [
        "▁সোশ্যাল",
        -9.624109268188477
      ],
      [
        "▁নজরুল",
        -9.625463485717772
      ],
      [
        "▁সহজেই",
        -9.625986099243164
      ],
      [
        "▁ঝুঁকি",
        -9.62622356414795
      ],
      [
        "▁ধান",
        -9.626976013183594
      ],
      [
        "▁নন",
        -9.62725067138672
      ],
      [
        "▁গোটা",
        -9.62766456604004
      ],
      [
        "এস",
        -9.628019332885742
      ],
      [
        "রী",
        -9.628722190856934
      ],
      [
        "▁প্রেম",
        -9.628725051879885
      ],
      [
        "▁*",
        -9.628901481628418
      ],
      [
        "▁তোলা",
        -9.628983497619627
      ],
      [
        "▁গুগল",
        -9.629039764404297
      ],
      [
        "পার",
        -9.63108730316162
      ],
      [
        "▁শোনা",
        -9.631911277770996
      ],
      [
        "▁আনতে",
        -9.633737564086914
      ],
      [
        "▁সংস্কৃতি",
        -9.63425064086914
      ],
      [
        "▁my",
        -9.634309768676758
      ],
      [
        "▁প্রেস",
        -9.634531021118164
      ],
      [
        "▁মার",
        -9.634607315063477
      ],
      [
        "▁দোয়া",
        -9.634733200073242
      ],
      [
        "▁কাজী",
        -9.63475513458252
      ],
      [
        "▁study",
        -9.63479709625244
      ],
      [
        "▁চলতে",
        -9.635539054870604
      ],
      [
        "▁must",
        -9.63576602935791
      ],
      [
        "য",
        -9.636212348937988
      ],
      [
        "▁রেল",
        -9.63723087310791
      ],
      [
        "I",
        -9.637738227844238
      ],
      [
        "▁এরা",
        -9.63774299621582
      ],
      [
        "▁মুখোমুখি",
        -9.63794994354248
      ],
      [
        "▁শিশুর",
        -9.638222694396973
      ],
      [
        "▁ব্যাখ্যা",
        -9.638861656188965
      ],
      [
        "▁রেলওয়ে",
        -9.639152526855469
      ],
      [
        "▁সম্মেলন",
        -9.63949489593506
      ],
      [
        "▁অনুমোদন",
        -9.639596939086914
      ],
      [
        "▁রাজনীতি",
        -9.639677047729492
      ],
      [
        "▁ওয়েব",
        -9.639931678771973
      ],
      [
        "চা",
        -9.64008331298828
      ],
      [
        "▁দি",
        -9.640820503234863
      ],
      [
        ",”",
        -9.641096115112305
      ],
      [
        "▁বিধানসভা",
        -9.641714096069336
      ],
      [
        "ary",
        -9.64212131500244
      ],
      [
        "▁কেন্দ্রে",
        -9.642518043518066
      ],
      [
        "▁দে",
        -9.642741203308104
      ],
      [
        "▁যাচ্ছেন",
        -9.643099784851074
      ],
      [
        "▁প্রতিবেদক",
        -9.643234252929688
      ],
      [
        "▁সিস্টেম",
        -9.64349365234375
      ],
      [
        "ভার",
        -9.643760681152344
      ],
      [
        "▁পাতা",
        -9.644288063049316
      ],
      [
        "▁তাকিয়ে",
        -9.64443016052246
      ],
      [
        "২৫",
        -9.644502639770508
      ],
      [
        "▁আন্দোলনের",
        -9.644925117492676
      ],
      [
        "▁প্রশাসনের",
        -9.645444869995115
      ],
      [
        "||",
        -9.64609432220459
      ],
      [
        "যুক্ত",
        -9.64639663696289
      ],
      [
        "▁”",
        -9.646428108215332
      ],
      [
        "▁আদালতের",
        -9.646434783935549
      ],
      [
        "▁শিল্পী",
        -9.646790504455566
      ],
      [
        "▁পরের",
        -9.647608757019045
      ],
      [
        "সন",
        -9.647645950317385
      ],
      [
        "▁বেঁচে",
        -9.649635314941406
      ],
      [
        "▁খুশি",
        -9.65029239654541
      ],
      [
        "▁লাইন",
        -9.651205062866213
      ],
      [
        "▁বেতন",
        -9.651275634765623
      ],
      [
        "▁সিরিজ",
        -9.652016639709473
      ],
      [
        "ia",
        -9.652053833007812
      ],
      [
        "▁পূরণ",
        -9.65253734588623
      ],
      [
        "▁আশ্রয়",
        -9.652897834777832
      ],
      [
        "গঞ্জ",
        -9.65292263031006
      ],
      [
        "▁আদেশ",
        -9.653192520141602
      ],
      [
        "▁সংযুক্ত",
        -9.653823852539062
      ],
      [
        "▁ব্যবহারের",
        -9.654423713684082
      ],
      [
        "▁হবেন",
        -9.654996871948242
      ],
      [
        "▁থাকবেন",
        -9.65503978729248
      ],
      [
        "▁ব্যাপার",
        -9.655287742614746
      ],
      [
        "▁প্রাচীন",
        -9.655319213867188
      ],
      [
        "▁ওজন",
        -9.656363487243652
      ],
      [
        "▁স্পষ্ট",
        -9.658208847045898
      ],
      [
        "ism",
        -9.658339500427246
      ],
      [
        "▁ম্যাচের",
        -9.658401489257812
      ],
      [
        "▁রা",
        -9.658628463745115
      ],
      [
        "▁বাসিন্দা",
        -9.65864372253418
      ],
      [
        "▁বৃষ্টি",
        -9.658724784851074
      ],
      [
        "১৭",
        -9.658775329589844
      ],
      [
        "▁সামান্য",
        -9.660889625549316
      ],
      [
        "▁বলার",
        -9.660906791687012
      ],
      [
        "▁চরম",
        -9.661052703857422
      ],
      [
        "▁তারকা",
        -9.66174602508545
      ],
      [
        "ম্যান",
        -9.661992073059082
      ],
      [
        "▁ঐতিহাসিক",
        -9.66232204437256
      ],
      [
        "▁কেন্দ্রের",
        -9.662717819213867
      ],
      [
        "ন্ত",
        -9.662781715393066
      ],
      [
        "▁গা",
        -9.663070678710938
      ],
      [
        "▁করিম",
        -9.66506290435791
      ],
      [
        "চি",
        -9.666090965270996
      ],
      [
        "▁স্ব",
        -9.666098594665527
      ],
      [
        "▁number",
        -9.666987419128418
      ],
      [
        "M",
        -9.667534828186035
      ],
      [
        "▁প্রাকৃতিক",
        -9.668128967285156
      ],
      [
        "▁লি",
        -9.668559074401855
      ],
      [
        "▁বজায়",
        -9.669360160827637
      ],
      [
        "▁often",
        -9.66969871520996
      ],
      [
        "▁নীল",
        -9.670190811157228
      ],
      [
        "▁খেলতে",
        -9.670456886291504
      ],
      [
        "▁২০১৩",
        -9.67108917236328
      ],
      [
        "▁পুনরায়",
        -9.67111587524414
      ],
      [
        "▁ফুট",
        -9.671428680419922
      ],
      [
        "▁আদর্শ",
        -9.67192840576172
      ],
      [
        "▁বিড়াল",
        -9.672113418579102
      ],
      [
        "▁গোপন",
        -9.672350883483888
      ],
      [
        "▁কাপ",
        -9.672675132751465
      ],
      [
        "▁বোঝা",
        -9.672701835632324
      ],
      [
        "▁বোন",
        -9.673276901245115
      ],
      [
        "▁প্রসঙ্গে",
        -9.673739433288574
      ],
      [
        "▁চলমান",
        -9.67380142211914
      ],
      [
        "▁গ্যাস",
        -9.674038887023926
      ],
      [
        "▁জো",
        -9.674448013305664
      ],
      [
        "▁আসামি",
        -9.675251007080078
      ],
      [
        "▁day",
        -9.675617218017578
      ],
      [
        "▁পারেননি",
        -9.67562770843506
      ],
      [
        "▁অসুস্থ",
        -9.677568435668944
      ],
      [
        "‌",
        -9.677726745605469
      ],
      [
        "▁উপহার",
        -9.678210258483888
      ],
      [
        "▁চিহ্নিত",
        -9.678601264953612
      ],
      [
        "0",
        -9.67905330657959
      ],
      [
        "▁good",
        -9.67906665802002
      ],
      [
        "▁মাঠ",
        -9.680145263671877
      ],
      [
        "িন",
        -9.680656433105469
      ],
      [
        "▁বাস্তবায়ন",
        -9.68100929260254
      ],
      [
        "▁কথায়",
        -9.681239128112791
      ],
      [
        "▁O",
        -9.68142795562744
      ],
      [
        "co",
        -9.68153190612793
      ],
      [
        "১১",
        -9.681742668151855
      ],
      [
        "▁Comments",
        -9.682543754577637
      ],
      [
        "▁ভাব",
        -9.68310832977295
      ],
      [
        "▁take",
        -9.683165550231934
      ],
      [
        "ষ",
        -9.68398380279541
      ],
      [
        "▁ইচ্ছা",
        -9.684181213378906
      ],
      [
        "ent",
        -9.68496322631836
      ],
      [
        "4",
        -9.685088157653809
      ],
      [
        "▁মুজিবুর",
        -9.685979843139648
      ],
      [
        "▁আকাশ",
        -9.68626308441162
      ],
      [
        "▁অ্যাপ",
        -9.686540603637695
      ],
      [
        "▁ধারণ",
        -9.686653137207031
      ],
      [
        "▁research",
        -9.687047958374023
      ],
      [
        "▁সকলের",
        -9.688068389892578
      ],
      [
        "▁দান",
        -9.688077926635742
      ],
      [
        "▁লাগবে",
        -9.68877124786377
      ],
      [
        "▁শাখা",
        -9.688782691955566
      ],
      [
        "▁শ্রেষ্ঠ",
        -9.68903350830078
      ],
      [
        "▁তৈরী",
        -9.689373016357422
      ],
      [
        "▁ডাউনলোড",
        -9.689584732055664
      ],
      [
        "▁ব্যবস্থাপনা",
        -9.68968105316162
      ],
      [
        "▁ইমাম",
        -9.689870834350586
      ],
      [
        "কেই",
        -9.69041633605957
      ],
      [
        "▁অনুসরণ",
        -9.69104290008545
      ],
      [
        "z",
        -9.69214916229248
      ],
      [
        "▁while",
        -9.692597389221191
      ],
      [
        "▁হবার",
        -9.693802833557127
      ],
      [
        "▁সমিতির",
        -9.694037437438965
      ],
      [
        "▁বিচারপতি",
        -9.694099426269531
      ],
      [
        "▁সমান",
        -9.694361686706545
      ],
      [
        "▁পে",
        -9.694487571716309
      ],
      [
        "খা",
        -9.694503784179688
      ],
      [
        "▁বেশী",
        -9.694746971130373
      ],
      [
        "▁যুব",
        -9.695464134216309
      ],
      [
        "▁প্রয়োগ",
        -9.696959495544434
      ],
      [
        "▁ধারা",
        -9.697998046875
      ],
      [
        "▁স্কুলে",
        -9.69815444946289
      ],
      [
        "▁বিন",
        -9.698606491088867
      ],
      [
        "▁পাঠ",
        -9.698827743530272
      ],
      [
        "▁ফা",
        -9.699711799621582
      ],
      [
        "▁টানা",
        -9.699810981750488
      ],
      [
        "▁হাজির",
        -9.701592445373535
      ],
      [
        "▁হিসাব",
        -9.70296573638916
      ],
      [
        "▁বিক্ষোভ",
        -9.702995300292969
      ],
      [
        "▁শ",
        -9.703306198120115
      ],
      [
        "▁নিকট",
        -9.703516960144045
      ],
      [
        "▁আটকে",
        -9.704097747802734
      ],
      [
        "▁তেমনি",
        -9.704551696777344
      ],
      [
        "▁মহাসচিব",
        -9.704571723937988
      ],
      [
        "et",
        -9.704842567443848
      ],
      [
        "▁তৈরির",
        -9.705328941345217
      ],
      [
        "▁আসনের",
        -9.705902099609377
      ],
      [
        "▁সন্ধ্যায়",
        -9.706223487854004
      ],
      [
        "▁ওয়ার্ড",
        -9.706719398498535
      ],
      [
        "▁বসবাস",
        -9.707601547241213
      ],
      [
        "▁ফিরিয়ে",
        -9.70783805847168
      ],
      [
        "▁ব্যর্থ",
        -9.708054542541504
      ],
      [
        "▁University",
        -9.708203315734863
      ],
      [
        "▁মাস্ক",
        -9.708209037780762
      ],
      [
        "▁ট্রেন",
        -9.708288192749023
      ],
      [
        "▁বিনিয়োগ",
        -9.708410263061523
      ],
      [
        "▁নেয়ার",
        -9.709467887878418
      ],
      [
        "▁ব্যাট",
        -9.709717750549316
      ],
      [
        "▁বিশ্বকাপ",
        -9.709728240966797
      ],
      [
        "▁চিকিৎসার",
        -9.710421562194824
      ],
      [
        "▁সপ্তাহ",
        -9.710719108581545
      ],
      [
        "▁ক্রীড়া",
        -9.710800170898438
      ],
      [
        "um",
        -9.712302207946776
      ],
      [
        "▁পাস",
        -9.712740898132324
      ],
      [
        "▁করলাম",
        -9.712815284729004
      ],
      [
        "▁হুমকি",
        -9.71298122406006
      ],
      [
        "নগর",
        -9.71360969543457
      ],
      [
        "▁অবদান",
        -9.714018821716309
      ],
      [
        "▁পানির",
        -9.716181755065918
      ],
      [
        "▁অধিকাংশ",
        -9.717084884643556
      ],
      [
        "ist",
        -9.717327117919922
      ],
      [
        "রাজ",
        -9.717399597167969
      ],
      [
        "▁কংগ্রেস",
        -9.718393325805664
      ],
      [
        "▁র্যাব",
        -9.718411445617676
      ],
      [
        "li",
        -9.719459533691406
      ],
      [
        "▁back",
        -9.719925880432127
      ],
      [
        "▁নির্যাতন",
        -9.720181465148926
      ],
      [
        "বেন",
        -9.7208833694458
      ],
      [
        "▁রাখুন",
        -9.721378326416016
      ],
      [
        "▁মিথ্যা",
        -9.723562240600586
      ],
      [
        "কেও",
        -9.724040985107422
      ],
      [
        "▁So",
        -9.724119186401367
      ],
      [
        "▁now",
        -9.725236892700195
      ],
      [
        "▁গুরুতর",
        -9.726452827453612
      ],
      [
        "▁f",
        -9.726561546325684
      ],
      [
        "▁বললাম",
        -9.727901458740234
      ],
      [
        "▁থাকি",
        -9.72821044921875
      ],
      [
        "জার",
        -9.72830581665039
      ],
      [
        "▁জাতি",
        -9.728342056274414
      ],
      [
        "▁সংবিধান",
        -9.730236053466797
      ],
      [
        "▁যাক",
        -9.730358123779297
      ],
      [
        "▁When",
        -9.730435371398926
      ],
      [
        "▁বাড়ছে",
        -9.730545997619627
      ],
      [
        "্",
        -9.730554580688477
      ],
      [
        "▁বাণিজ্য",
        -9.731351852416992
      ],
      [
        "▁সরিয়ে",
        -9.731491088867188
      ],
      [
        "▁স্মৃতি",
        -9.73183250427246
      ],
      [
        "▁ভাইস",
        -9.73203182220459
      ],
      [
        "ul",
        -9.732383728027344
      ],
      [
        "▁ফের",
        -9.733369827270508
      ],
      [
        "▁করোনায়",
        -9.733438491821287
      ],
      [
        "▁শো",
        -9.734188079833984
      ],
      [
        "▁সম্মান",
        -9.735137939453123
      ],
      [
        "▁৭০",
        -9.735867500305176
      ],
      [
        "▁কল্যাণ",
        -9.736720085144045
      ],
      [
        "▁কবিতা",
        -9.736734390258787
      ],
      [
        "▁মেয়ের",
        -9.737302780151367
      ],
      [
        "▁দেখিয়ে",
        -9.737710952758787
      ],
      [
        "▁সংরক্ষণ",
        -9.737890243530272
      ],
      [
        "▁গিয়েছিল",
        -9.73845386505127
      ],
      [
        "▁সেতু",
        -9.738518714904783
      ],
      [
        "▁৮০",
        -9.73875331878662
      ],
      [
        "▁know",
        -9.7390718460083
      ],
      [
        "▁নিয়ন্ত্রণে",
        -9.73932933807373
      ],
      [
        "হার",
        -9.73946762084961
      ],
      [
        "▁গোলাম",
        -9.739582061767578
      ],
      [
        "▁কিছুদিন",
        -9.740750312805176
      ],
      [
        "▁যেভাবে",
        -9.74138355255127
      ],
      [
        "▁সতর্ক",
        -9.741813659667969
      ],
      [
        "▁২০১০",
        -9.741985321044922
      ],
      [
        "▁দেবেন",
        -9.742409706115724
      ],
      [
        "▁সচেতন",
        -9.74246597290039
      ],
      [
        "১৬",
        -9.74288845062256
      ],
      [
        "▁দুটো",
        -9.743087768554688
      ],
      [
        "▁বিকাশ",
        -9.74403476715088
      ],
      [
        "▁মাধ্যম",
        -9.744327545166016
      ],
      [
        "▁আছি",
        -9.74463939666748
      ],
      [
        "▁body",
        -9.744762420654297
      ],
      [
        "▁শ্রী",
        -9.74485969543457
      ],
      [
        "▁পরিস্থিতিতে",
        -9.74493408203125
      ],
      [
        "▁দুর্নীতি",
        -9.745102882385254
      ],
      [
        "▁জন্মগ্রহণ",
        -9.74514102935791
      ],
      [
        "▁অনুষ্ঠানের",
        -9.745975494384766
      ],
      [
        "ময়",
        -9.746274948120115
      ],
      [
        "▁শা",
        -9.746599197387695
      ],
      [
        "▁এজন্য",
        -9.746622085571287
      ],
      [
        "▁অধিক",
        -9.746633529663086
      ],
      [
        "▁হাসি",
        -9.74710750579834
      ],
      [
        "▁আউট",
        -9.747693061828612
      ],
      [
        "▁ব্যথা",
        -9.748147010803224
      ],
      [
        "▁me",
        -9.74814796447754
      ],
      [
        "▁উঠতে",
        -9.74826431274414
      ],
      [
        "মেন্ট",
        -9.74870777130127
      ],
      [
        "▁৩৫",
        -9.749311447143556
      ],
      [
        "্স",
        -9.749629974365234
      ],
      [
        "২২",
        -9.750129699707031
      ],
      [
        "▁চিঠি",
        -9.750258445739746
      ],
      [
        "▁দশ",
        -9.750658988952637
      ],
      [
        "3",
        -9.75095558166504
      ],
      [
        "▁around",
        -9.751751899719238
      ],
      [
        "▁২০২২",
        -9.752325057983398
      ],
      [
        "লী",
        -9.752745628356934
      ],
      [
        "▁own",
        -9.752922058105469
      ],
      [
        "N",
        -9.753985404968262
      ],
      [
        "েন",
        -9.754094123840332
      ],
      [
        "▁এটাই",
        -9.75409984588623
      ],
      [
        "ine",
        -9.75452709197998
      ],
      [
        "▁আগ্রহ",
        -9.755799293518066
      ],
      [
        "▁সঙ্গীত",
        -9.756153106689451
      ],
      [
        "▁মনের",
        -9.756620407104492
      ],
      [
        "▁মুখ্যমন্ত্রী",
        -9.75712776184082
      ],
      [
        "▁২০১২",
        -9.757787704467772
      ],
      [
        "▁সন্তানের",
        -9.757946014404297
      ],
      [
        "▁লাগিয়ে",
        -9.75812816619873
      ],
      [
        "▁These",
        -9.75879955291748
      ],
      [
        "▁And",
        -9.758898735046388
      ],
      [
        "▁অভিষেক",
        -9.75906467437744
      ],
      [
        "▁এক্ষেত্রে",
        -9.759512901306152
      ],
      [
        "▁পরি",
        -9.760072708129885
      ],
      [
        "▁ধ্বংস",
        -9.760805130004885
      ],
      [
        "▁জিয়ার",
        -9.761505126953123
      ],
      [
        "▁ঘিরে",
        -9.761958122253418
      ],
      [
        "▁ভেতর",
        -9.762799263000488
      ],
      [
        "বল",
        -9.762974739074709
      ],
      [
        "O",
        -9.763534545898438
      ],
      [
        "▁সবসময়",
        -9.763625144958496
      ],
      [
        "▁শিক্ষার্থীরা",
        -9.76442050933838
      ],
      [
        "te",
        -9.765057563781738
      ],
      [
        "১৪",
        -9.765498161315918
      ],
      [
        "▁মেয়েদের",
        -9.765756607055664
      ],
      [
        "as",
        -9.766550064086914
      ],
      [
        "▁পাখি",
        -9.76658821105957
      ],
      [
        "▁এতো",
        -9.766595840454102
      ],
      [
        "▁মাদ্রাসা",
        -9.767516136169434
      ],
      [
        "▁চরিত্র",
        -9.76771354675293
      ],
      [
        "▁রোগীর",
        -9.767909049987791
      ],
      [
        "me",
        -9.768194198608398
      ],
      [
        "▁প্রকার",
        -9.76840114593506
      ],
      [
        "২৪",
        -9.768987655639648
      ],
      [
        "ate",
        -9.76921558380127
      ],
      [
        "▁সাইট",
        -9.769290924072266
      ],
      [
        "▁বারবার",
        -9.769404411315918
      ],
      [
        "▁সুতরাং",
        -9.76986312866211
      ],
      [
        "▁মিল",
        -9.76998233795166
      ],
      [
        "▁তাছাড়া",
        -9.77019500732422
      ],
      [
        "৫০",
        -9.77110195159912
      ],
      [
        "▁বিপুল",
        -9.77124309539795
      ],
      [
        "▁এরই",
        -9.771414756774902
      ],
      [
        "▁রস",
        -9.771677017211914
      ],
      [
        "▁কামনা",
        -9.772679328918455
      ],
      [
        "▁অসংখ্য",
        -9.772708892822266
      ],
      [
        "▁গেলো",
        -9.773863792419434
      ],
      [
        "▁she",
        -9.773971557617188
      ],
      [
        "▁নুরুল",
        -9.774316787719728
      ],
      [
        "▁এন্ড",
        -9.774724960327148
      ],
      [
        "▁three",
        -9.774812698364258
      ],
      [
        "▁ঈদ",
        -9.77515697479248
      ],
      [
        "আমার",
        -9.775275230407717
      ],
      [
        "▁পাশ",
        -9.7755765914917
      ],
      [
        "ান",
        -9.775824546813965
      ],
      [
        "ne",
        -9.776066780090332
      ],
      [
        "▁সরকারী",
        -9.776259422302246
      ],
      [
        "▁human",
        -9.777388572692873
      ],
      [
        "২১",
        -9.777581214904783
      ],
      [
        "মুক্ত",
        -9.778285026550291
      ],
      [
        "▁খুলনা",
        -9.77845573425293
      ],
      [
        "সার",
        -9.779671669006348
      ],
      [
        "▁সাকিব",
        -9.780170440673828
      ],
      [
        "▁মৌসুমে",
        -9.780563354492188
      ],
      [
        "▁নিষিদ্ধ",
        -9.781670570373535
      ],
      [
        "▁ক্যামেরা",
        -9.782336235046388
      ],
      [
        "▁খেলায়",
        -9.784504890441896
      ],
      [
        "▁বৈশিষ্ট্য",
        -9.78642749786377
      ],
      [
        "▁বিকেল",
        -9.786686897277832
      ],
      [
        "▁পু",
        -9.787434577941896
      ],
      [
        "▁বাসা",
        -9.788091659545898
      ],
      [
        "▁কোচ",
        -9.788725852966309
      ],
      [
        "ian",
        -9.788844108581545
      ],
      [
        "▁অনেকটা",
        -9.789307594299316
      ],
      [
        "▁প্রাপ্ত",
        -9.789572715759276
      ],
      [
        "▁নির্বাচনী",
        -9.790209770202637
      ],
      [
        "▁জনসংখ্যা",
        -9.790454864501951
      ],
      [
        "▁চ্যানেল",
        -9.79059886932373
      ],
      [
        "▁করোনাভাইরাস",
        -9.790711402893066
      ],
      [
        "▁জানে",
        -9.791739463806152
      ],
      [
        "▁কারা",
        -9.792036056518556
      ],
      [
        "▁বুঝে",
        -9.792038917541504
      ],
      [
        "▁প্রতিমন্ত্রী",
        -9.792333602905272
      ],
      [
        "▁আবারও",
        -9.792681694030762
      ],
      [
        "▁ফ্রি",
        -9.792757034301758
      ],
      [
        ".)",
        -9.792943000793455
      ],
      [
        "▁ভিটামিন",
        -9.794432640075684
      ],
      [
        "is",
        -9.794837951660156
      ],
      [
        "▁কিনে",
        -9.79499053955078
      ],
      [
        "▁অভিযুক্ত",
        -9.795259475708008
      ],
      [
        "▁স্বীকৃতি",
        -9.795443534851074
      ],
      [
        "▁6",
        -9.796804428100586
      ],
      [
        "ry",
        -9.796902656555176
      ],
      [
        "▁লিখিত",
        -9.797131538391112
      ],
      [
        "▁অফিসে",
        -9.79741668701172
      ],
      [
        "▁শুরুর",
        -9.79803466796875
      ],
      [
        "▁আসনে",
        -9.798237800598145
      ],
      [
        "▁পাল",
        -9.798569679260254
      ],
      [
        "▁ওভারে",
        -9.800264358520508
      ],
      [
        "▁একেবারে",
        -9.800354957580566
      ],
      [
        "▁ভুলে",
        -9.80039119720459
      ],
      [
        "▁শুরুতে",
        -9.801226615905762
      ],
      [
        "▁ফারুক",
        -9.804407119750977
      ],
      [
        "▁শ্রদ্ধা",
        -9.805317878723145
      ],
      [
        "▁কারণেই",
        -9.80538845062256
      ],
      [
        "েশন",
        -9.806350708007812
      ],
      [
        "▁per",
        -9.806734085083008
      ],
      [
        "▁ত্যাগ",
        -9.806914329528809
      ],
      [
        "▁নজর",
        -9.807414054870604
      ],
      [
        "▁food",
        -9.80745792388916
      ],
      [
        "▁বিশ্ববিদ্যালয়ে",
        -9.807575225830078
      ],
      [
        "▁স্কুলের",
        -9.807687759399414
      ],
      [
        "▁প্রকৃত",
        -9.807721138000488
      ],
      [
        "▁সন্ধ্যা",
        -9.808235168457031
      ],
      [
        "5",
        -9.808737754821776
      ],
      [
        "▁চি",
        -9.809200286865234
      ],
      [
        "▁হালকা",
        -9.809938430786133
      ],
      [
        "▁ঢুকে",
        -9.810416221618652
      ],
      [
        "▁No",
        -9.81071662902832
      ],
      [
        "▁down",
        -9.810754776000977
      ],
      [
        "জু",
        -9.811212539672852
      ],
      [
        "চে",
        -9.812042236328123
      ],
      [
        "ফি",
        -9.81235408782959
      ],
      [
        "ন্ড",
        -9.812545776367188
      ],
      [
        "▁post",
        -9.813116073608398
      ],
      [
        "▁কলকাতার",
        -9.81346607208252
      ],
      [
        "▁খাওয়ার",
        -9.813645362854004
      ],
      [
        "▁দুর্ঘটনা",
        -9.813790321350098
      ],
      [
        "▁ক্লাবের",
        -9.81429672241211
      ],
      [
        "আই",
        -9.814918518066406
      ],
      [
        "▁প্রতিযোগিতা",
        -9.815253257751465
      ],
      [
        "▁example",
        -9.815589904785156
      ],
      [
        "▁বলেছে",
        -9.815589904785156
      ],
      [
        "▁রচনা",
        -9.815622329711914
      ],
      [
        "▁গায়ে",
        -9.815932273864746
      ],
      [
        "▁does",
        -9.816165924072266
      ],
      [
        "▁ভূমি",
        -9.817168235778809
      ],
      [
        "▁চাষ",
        -9.818013191223145
      ],
      [
        "▁দৃশ্য",
        -9.818367958068848
      ],
      [
        "▁কৌশল",
        -9.819661140441896
      ],
      [
        "▁কাটা",
        -9.820542335510254
      ],
      [
        "▁আমিন",
        -9.821014404296877
      ],
      [
        "▁আচরণ",
        -9.821213722229004
      ],
      [
        "▁গণ",
        -9.821401596069336
      ],
      [
[...]
